{
  "token_to_id": {
    "\n": 0,
    " ": 1,
    "!": 2,
    "$": 3,
    "&": 4,
    "'": 5,
    ",": 6,
    "-": 7,
    ".": 8,
    "3": 9,
    ":": 10,
    ";": 11,
    "?": 12,
    "A": 13,
    "B": 14,
    "C": 15,
    "D": 16,
    "E": 17,
    "F": 18,
    "G": 19,
    "H": 20,
    "I": 21,
    "J": 22,
    "K": 23,
    "L": 24,
    "M": 25,
    "N": 26,
    "O": 27,
    "P": 28,
    "Q": 29,
    "R": 30,
    "S": 31,
    "T": 32,
    "U": 33,
    "V": 34,
    "W": 35,
    "X": 36,
    "Y": 37,
    "Z": 38,
    "a": 39,
    "b": 40,
    "c": 41,
    "d": 42,
    "e": 43,
    "f": 44,
    "g": 45,
    "h": 46,
    "i": 47,
    "j": 48,
    "k": 49,
    "l": 50,
    "m": 51,
    "n": 52,
    "o": 53,
    "p": 54,
    "q": 55,
    "r": 56,
    "s": 57,
    "t": 58,
    "u": 59,
    "v": 60,
    "w": 61,
    "x": 62,
    "y": 63,
    "z": 64,
    "[UNK]": 65,
    "th": 66,
    "ou": 67,
    "er": 68,
    "in": 69,
    "an": 70,
    "the": 71,
    "or": 72,
    "is": 73,
    "en": 74,
    "ar": 75,
    "at": 76,
    "on": 77,
    "st": 78,
    "ll": 79,
    "me": 80,
    "to": 81,
    "and": 82,
    "he": 83,
    "you": 84,
    "es": 85,
    "no": 86,
    "se": 87,
    "ha": 88,
    "re": 89,
    "of": 90,
    "ve": 91,
    "it": 92,
    "ing": 93,
    "be": 94,
    "le": 95,
    "wi": 96,
    "my": 97,
    "hi": 98,
    "ow": 99,
    "ce": 100,
    "for": 101,
    "ay": 102,
    "as": 103,
    "ch": 104,
    "nd": 105,
    "ere": 106,
    "ld": 107,
    "ir": 108,
    "ed": 109,
    "ut": 110,
    "ro": 111,
    "not": 112,
    "li": 113,
    "de": 114,
    "we": 115,
    "hat": 116,
    "that": 117,
    "gh": 118,
    "And": 119,
    "ke": 120,
    "'s": 121,
    "oo": 122,
    "our": 123,
    "with": 124,
    "s,": 125,
    "ome": 126,
    "ent": 127,
    "his": 128,
    "ri": 129,
    "your": 130,
    "thou": 131,
    "ther": 132,
    "O:": 133,
    "ad": 134,
    "al": 135,
    "et": 136,
    "'d": 137,
    "e,": 138,
    "all": 139,
    "ght": 140,
    "EN": 141,
    "ur": 142,
    "have": 143,
    "him": 144,
    "IN": 145,
    "ly": 146,
    "so": 147,
    "ra": 148,
    "this": 149,
    "S:": 150,
    "ord": 151,
    "do": 152,
    "us": 153,
    "un": 154,
    "ho": 155,
    "ma": 156,
    "AR": 157,
    "pe": 158,
    "ould": 159,
    "lo": 160,
    "here": 161,
    "ood": 162,
    "id": 163,
    "thy": 164,
    "ver": 165,
    "fa": 166,
    "are": 167,
    "ck": 168,
    "y,": 169,
    "IO:": 170,
    "man": 171,
    "ti": 172,
    "now": 173,
    "The": 174,
    "am": 175,
    "sha": 176,
    "will": 177,
    "ess": 178,
    "ne": 179,
    "fe": 180,
    "ain": 181,
    "but": 182,
    "su": 183,
    "ard": 184,
    "her": 185,
    "one": 186,
    "US:": 187,
    "ter": 188,
    "con": 189,
    "ge": 190,
    "pr": 191,
    "Th": 192,
    "To": 193,
    "end": 194,
    "om": 195,
    "ru": 196,
    "la": 197,
    "by": 198,
    "shall": 199,
    "art": 200,
    "mor": 201,
    "UC": 202,
    "sh": 203,
    "come": 204,
    "po": 205,
    "ING": 206,
    "up": 207,
    "rom": 208,
    "own": 209,
    "AN": 210,
    "ta": 211,
    "That": 212,
    "what": 213,
    "ER": 214,
    "OR": 215,
    "mo": 216,
    "sel": 217,
    "ET": 218,
    "if": 219,
    "ous": 220,
    "te": 221,
    "go": 222,
    "good": 223,
    "ill": 224,
    "mu": 225,
    "qu": 226,
    "But": 227,
    "ath": 228,
    "hen": 229,
    "ble": 230,
    "ight": 231,
    "ion": 232,
    "lord": 233,
    "thee": 234,
    "'t": 235,
    "hich": 236,
    "king": 237,
    "'ll": 238,
    "A:": 239,
    "What": 240,
    "was": 241,
    "bo": 242,
    "ant": 243,
    "il": 244,
    "ven": 245,
    "KING": 246,
    "she": 247,
    "ca": 248,
    "from": 249,
    "ine": 250,
    "ong": 251,
    "bl": 252,
    "For": 253,
    "well": 254,
    "ul": 255,
    "them": 256,
    "sa": 257,
    "IC": 258,
    "ak": 259,
    "sir": 260,
    "self": 261,
    "ind": 262,
    "OL": 263,
    "would": 264,
    "s.": 265,
    "there": 266,
    "wor": 267,
    "ct": 268,
    "ay,": 269,
    "love": 270,
    "know": 271,
    "per": 272,
    "can": 273,
    "out": 274,
    "ive": 275,
    "EL": 276,
    "com": 277,
    "more": 278,
    "then": 279,
    "ag": 280,
    "let": 281,
    "es,": 282,
    "IUS:": 283,
    "ARD": 284,
    "their": 285,
    "di": 286,
    "My": 287,
    "than": 288,
    "ci": 289,
    "--": 290,
    "ce,": 291,
    "they": 292,
    "ST": 293,
    "see": 294,
    "o,": 295,
    "I'll": 296,
    "E:": 297,
    "ry": 298,
    "ep": 299,
    "like": 300,
    "ear": 301,
    "spe": 302,
    "ON": 303,
    "est": 304,
    "me,": 305,
    "were": 306,
    "bro": 307,
    "pro": 308,
    "ast": 309,
    "As": 310,
    "say": 311,
    "ish": 312,
    "We": 313,
    "ink": 314,
    "may": 315,
    "hath": 316,
    "II": 317,
    "irst": 318,
    "make": 319,
    "ple": 320,
    "ure": 321,
    "ol": 322,
    "You": 323,
    "row": 324,
    "who": 325,
    "thing": 326,
    "He": 327,
    "tru": 328,
    "fore": 329,
    "must": 330,
    "ap": 331,
    "ate": 332,
    "gra": 333,
    "ound": 334,
    "ith": 335,
    "you,": 336,
    "Go": 337,
    "ave": 338,
    "some": 339,
    "ook": 340,
    "should": 341,
    "father": 342,
    "fi": 343,
    "RO": 344,
    "time": 345,
    "TIO:": 346,
    "use": 347,
    "d,": 348,
    "upon": 349,
    "way": 350,
    "ence": 351,
    "ves": 352,
    "son": 353,
    "did": 354,
    "ET:": 355,
    "er,": 356,
    "AU": 357,
    "had": 358,
    "ig": 359,
    "reat": 360,
    "ward": 361,
    "dis": 362,
    "how": 363,
    "which": 364,
    "death": 365,
    "oun": 366,
    "word": 367,
    "fri": 368,
    "el": 369,
    "wo": 370,
    "If": 371,
    "sp": 372,
    "when": 373,
    "too": 374,
    "K:": 375,
    "men": 376,
    "speak": 377,
    "entle": 378,
    "In": 379,
    "CA": 380,
    "again": 381,
    "heart": 382,
    "ICH": 383,
    "RICH": 384,
    "vi": 385,
    "ful": 386,
    "t,": 387,
    "DU": 388,
    "DUK": 389,
    "hand": 390,
    "ers": 391,
    "DUKE": 392,
    "yet": 393,
    "old": 394,
    "y.": 395,
    "mar": 396,
    "Thou": 397,
    "um": 398,
    "think": 399,
    "RICHARD": 400,
    "ever": 401,
    "ENTIO:": 402,
    "pl": 403,
    "ran": 404,
    "take": 405,
    "ER:": 406,
    "Which": 407,
    "si": 408,
    "swe": 409,
    "Wh": 410,
    "day": 411,
    "ac": 412,
    "Y:": 413,
    "O,": 414,
    "hear": 415,
    "Be": 416,
    "With": 417,
    "INC": 418,
    "ign": 419,
    "s:": 420,
    "sir,": 421,
    "give": 422,
    "Of": 423,
    "na": 424,
    "No": 425,
    "gu": 426,
    "such": 427,
    "First": 428,
    "land": 429,
    "most": 430,
    "blood": 431,
    "AB": 432,
    "ex": 433,
    "brother": 434,
    "des": 435,
    "these": 436,
    "tell": 437,
    "hea": 438,
    "ment": 439,
    "ba": 440,
    "mine": 441,
    "ey": 442,
    "onour": 443,
    "bre": 444,
    "other": 445,
    "where": 446,
    "LO": 447,
    "I:": 448,
    "llow": 449,
    "How": 450,
    "Come": 451,
    "coun": 452,
    "This": 453,
    "EST": 454,
    "look": 455,
    "new": 456,
    "s;": 457,
    "ed,": 458,
    "UCH": 459,
    "friend": 460,
    "Who": 461,
    "oul": 462,
    "gentle": 463,
    "mis": 464,
    "war": 465,
    "ught": 466,
    "vo": 467,
    "GLO": 468,
    "GLOUC": 469,
    "GLOUCEST": 470,
    "GLOUCESTER:": 471,
    "chi": 472,
    "ity": 473,
    "im": 474,
    "af": 475,
    "ving": 476,
    "rown": 477,
    "hast": 478,
    "EEN": 479,
    "ab": 480,
    "Lord": 481,
    "ince": 482,
    "LI": 483,
    "God": 484,
    "urse": 485,
    "ster": 486,
    "du": 487,
    "Rome": 488,
    "night": 489,
    "off": 490,
    "less": 491,
    "fair": 492,
    "made": 493,
    "ang": 494,
    "ort": 495,
    "'st": 496,
    "QU": 497,
    "QUEEN": 498,
    "VINC": 499,
    "VINCENTIO:": 500,
    "honour": 501,
    "any": 502,
    "Mar": 503,
    "Se": 504,
    "tion": 505,
    "much": 506,
    "OF": 507,
    "ness": 508,
    "ance": 509,
    "er:": 510,
    "Where": 511,
    "urn": 512,
    "thee,": 513,
    "lord,": 514,
    "ise": 515,
    "mi": 516,
    "So": 517,
    "Is": 518,
    "pre": 519,
    "stand": 520,
    "ef": 521,
    "br": 522,
    "fear": 523,
    "HEN": 524,
    "'tis": 525,
    "Now": 526,
    "res": 527,
    "che": 528,
    "tle": 529,
    "HENR": 530,
    "HENRY": 531,
    "ond": 532,
    "great": 533,
    "lt": 534,
    "ng": 535,
    "ES": 536,
    "ust": 537,
    "part": 538,
    "it,": 539,
    "never": 540,
    "lie": 541,
    "ORI": 542,
    "pt": 543,
    "th,": 544,
    "Your": 545,
    "live": 546,
    "sc": 547,
    "arm": 548,
    "cond": 549,
    "It": 550,
    "jo": 551,
    "ES:": 552,
    "ser": 553,
    "call": 554,
    "o'": 555,
    "read": 556,
    "fo": 557,
    "head": 558,
    "YOR": 559,
    "YORK:": 560,
    "bear": 561,
    "iti": 562,
    "ation": 563,
    "Or": 564,
    "bet": 565,
    "INIUS:": 566,
    "cannot": 567,
    "pa": 568,
    "heaven": 569,
    "ber": 570,
    "ase": 571,
    "int": 572,
    "noble": 573,
    "PET": 574,
    "fl": 575,
    "und": 576,
    "ue": 577,
    "been": 578,
    "sweet": 579,
    "very": 580,
    "it.": 581,
    "'T": 582,
    "An": 583,
    "ED": 584,
    "EDW": 585,
    "EDWARD": 586,
    "Why,": 587,
    "GR": 588,
    "fort": 589,
    "que": 590,
    "TH": 591,
    "ree": 592,
    "ough": 593,
    "mer": 594,
    "nor": 595,
    "UM": 596,
    "MI": 597,
    "MEN": 598,
    "pp": 599,
    "doth": 600,
    "LE": 601,
    "LUC": 602,
    "da": 603,
    "ouse": 604,
    "lad": 605,
    "mean": 606,
    "There": 607,
    "ic": 608,
    "ing,": 609,
    "IS": 610,
    "him,": 611,
    "comm": 612,
    "man:": 613,
    "ELL": 614,
    "rest": 615,
    "When": 616,
    "ty": 617,
    "on,": 618,
    "name": 619,
    "age": 620,
    "Ed": 621,
    "life": 622,
    "zen": 623,
    "ME": 624,
    "co": 625,
    "soul": 626,
    "wr": 627,
    "Edward": 628,
    "ROME": 629,
    "ROMEO:": 630,
    "MENEN": 631,
    "MENENIUS:": 632,
    "world": 633,
    "By": 634,
    "tr": 635,
    "red": 636,
    "queen": 637,
    "Ri": 638,
    "s?": 639,
    "Let": 640,
    "Here": 641,
    "Then": 642,
    "orn": 643,
    "pri": 644,
    "down": 645,
    "true": 646,
    "dead": 647,
    "PETR": 648,
    "PETRUCH": 649,
    "PETRUCHIO:": 650,
    "'d,": 651,
    "pres": 652,
    "ower": 653,
    "OM": 654,
    "pray": 655,
    "long": 656,
    "ass": 657,
    "him.": 658,
    "Ay,": 659,
    "ake": 660,
    "before": 661,
    "Than": 662,
    "op": 663,
    "gr": 664,
    "wick": 665,
    "ie": 666,
    "mother": 667,
    "Come,": 668,
    "leave": 669,
    "hold": 670,
    "myself": 671,
    "us,": 672,
    "em": 673,
    "MAR": 674,
    "Cl": 675,
    "HA": 676,
    "ONT": 677,
    "you.": 678,
    "cour": 679,
    "s!": 680,
    "cause": 681,
    "house": 682,
    "ull": 683,
    "put": 684,
    "me.": 685,
    "ret": 686,
    "ren": 687,
    "CORI": 688,
    "CORIOL": 689,
    "CORIOLAN": 690,
    "Second": 691,
    "being": 692,
    "tri": 693,
    "Nor": 694,
    "one,": 695,
    "CORIOLANUS:": 696,
    "whi": 697,
    "thought": 698,
    "grace": 699,
    "Rich": 700,
    "BA": 701,
    "child": 702,
    "poor": 703,
    "lif": 704,
    "both": 705,
    "itizen": 706,
    "ved": 707,
    "ite": 708,
    "set": 709,
    "She": 710,
    "der": 711,
    "wh": 712,
    "ore": 713,
    "thus": 714,
    "sw": 715,
    "daught": 716,
    "foo": 717,
    "tra": 718,
    "INA:": 719,
    "cl": 720,
    "right": 721,
    "IV": 722,
    "D:": 723,
    "beg": 724,
    "III:": 725,
    "might": 726,
    "Sir": 727,
    "Do": 728,
    "done": 729,
    "atter": 730,
    "crown": 731,
    "pla": 732,
    "atch": 733,
    "light": 734,
    "ten": 735,
    "k,": 736,
    "shi": 737,
    "bid": 738,
    "ss": 739,
    "War": 740,
    "Warwick": 741,
    "ly,": 742,
    "gri": 743,
    "ach": 744,
    "comes": 745,
    "His": 746,
    "many": 747,
    "a,": 748,
    "not,": 749,
    "es.": 750,
    "lit": 751,
    "ll,": 752,
    "'Tis": 753,
    "AD": 754,
    "pose": 755,
    "ISAB": 756,
    "ISABELL": 757,
    "ISABELLA:": 758,
    "st,": 759,
    "nothing": 760,
    "tal": 761,
    "par": 762,
    "kind": 763,
    "tong": 764,
    "bra": 765,
    "ed.": 766,
    "RAN": 767,
    "And,": 768,
    "better": 769,
    "mad": 770,
    "away": 771,
    "ose": 772,
    "JU": 773,
    "JULI": 774,
    "JULIET:": 775,
    "LEONT": 776,
    "LEONTES:": 777,
    "cious": 778,
    "though": 779,
    "led": 780,
    "uck": 781,
    "able": 782,
    "LAD": 783,
    "LADY": 784,
    "VOL": 785,
    "ban": 786,
    "ENC": 787,
    "ENCE:": 788,
    "till": 789,
    "stay": 790,
    "show": 791,
    "tend": 792,
    "ither": 793,
    "BR": 794,
    "Citizen": 795,
    "against": 796,
    "le,": 797,
    "sent": 798,
    "ice": 799,
    "Ser": 800,
    "Nay,": 801,
    "and,": 802,
    "er.": 803,
    "now,": 804,
    "those": 805,
    "Pro": 806,
    "ft": 807,
    "sle": 808,
    "little": 809,
    "man,": 810,
    "What,": 811,
    "SIC": 812,
    "SICINIUS:": 813,
    "hour": 814,
    "far": 815,
    "die": 816,
    "tent": 817,
    "lp": 818,
    "ace": 819,
    "'er": 820,
    "ction": 821,
    "Sha": 822,
    "tre": 823,
    "h,": 824,
    "dear": 825,
    "pur": 826,
    "Un": 827,
    "keep": 828,
    "No,": 829,
    "tear": 830,
    "urder": 831,
    "char": 832,
    "best": 833,
    "tain": 834,
    "still": 835,
    "law": 836,
    "himself": 837,
    "oud": 838,
    "Not": 839,
    "den": 840,
    "ry,": 841,
    "back": 842,
    "io": 843,
    "full": 844,
    "Thy": 845,
    "LUCIO:": 846,
    "kes": 847,
    "unto": 848,
    "sub": 849,
    "gar": 850,
    "TI": 851,
    "to-": 852,
    "Richard": 853,
    "IV:": 854,
    "ted": 855,
    "Have": 856,
    "ech": 857,
    "ess,": 858,
    "thank": 859,
    "roy": 860,
    "LO:": 861,
    "first": 862,
    "Will": 863,
    "else": 864,
    "ts": 865,
    "wife": 866,
    "could": 867,
    "high": 868,
    "bes": 869,
    "eyes": 870,
    "so,": 871,
    "ison": 872,
    "sor": 873,
    "Yor": 874,
    "duke": 875,
    "ought": 876,
    "hus": 877,
    "conf": 878,
    "Hen": 879,
    "two": 880,
    "in,": 881,
    "cut": 882,
    "H:": 883,
    "nat": 884,
    "dy": 885,
    "find": 886,
    "ing.": 887,
    "come,": 888,
    "young": 889,
    "ELI": 890,
    "ELIZ": 891,
    "ELIZAB": 892,
    "ELIZABET": 893,
    "ELIZABETH:": 894,
    "ate,": 895,
    "cha": 896,
    "hor": 897,
    "bring": 898,
    "une": 899,
    "Good": 900,
    "ople": 901,
    "je": 902,
    "min": 903,
    "just": 904,
    "mind": 905,
    "get": 906,
    "home": 907,
    "qui": 908,
    "GRE": 909,
    "IAN": 910,
    "people": 911,
    "itor": 912,
    "Yet": 913,
    "husb": 914,
    "under": 915,
    "seem": 916,
    "arewell": 917,
    "I,": 918,
    "ason": 919,
    "CL": 920,
    "ene": 921,
    "ste": 922,
    "comp": 923,
    "forth": 924,
    "after": 925,
    "happ": 926,
    "MER": 927,
    "PER": 928,
    "All": 929,
    "need": 930,
    "ins": 931,
    "ship": 932,
    "joy": 933,
    "gi": 934,
    "fall": 935,
    "Now,": 936,
    "WAR": 937,
    "WARW": 938,
    "WARWIC": 939,
    "WARWICK:": 940,
    "Citizen:": 941,
    "master": 942,
    "ister": 943,
    "fellow": 944,
    "face": 945,
    "follow": 946,
    "UT": 947,
    "y:": 948,
    "wel": 949,
    "bu": 950,
    "vant": 951,
    "king,": 952,
    "II:": 953,
    "rep": 954,
    "deed": 955,
    "car": 956,
    "lay": 957,
    "thine": 958,
    "ardon": 959,
    "Nurse": 960,
    "please": 961,
    "came": 962,
    "HAM": 963,
    "HAM:": 964,
    "They": 965,
    "hither": 966,
    "said": 967,
    "Shall": 968,
    "prince": 969,
    "morrow": 970,
    "CAP": 971,
    "CAPU": 972,
    "CAPUL": 973,
    "CAPULET:": 974,
    "every": 975,
    "gone": 976,
    "dou": 977,
    "kill": 978,
    "pat": 979,
    "Well,": 980,
    "year": 981,
    "Romeo": 982,
    "ces": 983,
    "ken": 984,
    "acc": 985,
    "heard": 986,
    "power": 987,
    "am,": 988,
    "BRUT": 989,
    "BRUTUS:": 990,
    "tem": 991,
    "me;": 992,
    "raw": 993,
    "BUC": 994,
    "BUCKING": 995,
    "BUCKINGHAM:": 996,
    "ly.": 997,
    "help": 998,
    "tongue": 999,
    "thr": 1000,
    "From": 1001,
    "once": 1002,
    "sit": 1003,
    "ies": 1004,
    "jest": 1005,
    "clo": 1006,
    "ge,": 1007,
    "BOL": 1008,
    "BOLING": 1009,
    "BOLINGB": 1010,
    "BOLINGBRO": 1011,
    "BOLINGBROK": 1012,
    "BOLINGBROKE:": 1013,
    "TRAN": 1014,
    "TRANIO:": 1015,
    "bus": 1016,
    "whose": 1017,
    "marri": 1018,
    "present": 1019,
    "st:": 1020,
    "ence,": 1021,
    "wit": 1022,
    "Nurse:": 1023,
    "Our": 1024,
    "bri": 1025,
    "peace": 1026,
    "mon": 1027,
    "hope": 1028,
    "maid": 1029,
    "royal": 1030,
    "count": 1031,
    "iness": 1032,
    "sen": 1033,
    "lack": 1034,
    "ator": 1035,
    "cent": 1036,
    "hence": 1037,
    "wrong": 1038,
    "King": 1039,
    "cur": 1040,
    "sun": 1041,
    "On": 1042,
    "meet": 1043,
    "fal": 1044,
    "Why": 1045,
    "sorrow": 1046,
    "MARG": 1047,
    "MARGAR": 1048,
    "MARGARET:": 1049,
    "ESS": 1050,
    "gain": 1051,
    "sand": 1052,
    "answ": 1053,
    "gen": 1054,
    "m,": 1055,
    "daughter": 1056,
    "MIL": 1057,
    "ATH": 1058,
    "god": 1059,
    "vir": 1060,
    "say,": 1061,
    "none": 1062,
    "husband": 1063,
    "pardon": 1064,
    "then,": 1065,
    "ings": 1066,
    "pi": 1067,
    "is,": 1068,
    "stru": 1069,
    "about": 1070,
    "reme": 1071,
    "ark": 1072,
    "Bo": 1073,
    "vere": 1074,
    "cous": 1075,
    "Clar": 1076,
    "ford": 1077,
    "ANG": 1078,
    "ANGEL": 1079,
    "ANGELO:": 1080,
    "HOR": 1081,
    "run": 1082,
    "vil": 1083,
    "eng": 1084,
    "fool": 1085,
    "weep": 1086,
    "St": 1087,
    "York": 1088,
    "Eng": 1089,
    "EL:": 1090,
    "CU": 1091,
    "ARINA:": 1092,
    "Marci": 1093,
    "ceive": 1094,
    "wear": 1095,
    "gracious": 1096,
    "Henry": 1097,
    "KATH": 1098,
    "KATHARINA:": 1099,
    "place": 1100,
    "over": 1101,
    "y;": 1102,
    "last": 1103,
    "into": 1104,
    "ff": 1105,
    "thousand": 1106,
    "pet": 1107,
    "mber": 1108,
    "stri": 1109,
    "swear": 1110,
    "asure": 1111,
    "love,": 1112,
    "Du": 1113,
    "since": 1114,
    "er'd": 1115,
    "Up": 1116,
    "turn": 1117,
    "spir": 1118,
    "xt": 1119,
    "therefore": 1120,
    "grief": 1121,
    "ESCA": 1122,
    "ESCAL": 1123,
    "ESCALUS:": 1124,
    "ject": 1125,
    "content": 1126,
    "Sir,": 1127,
    "ud": 1128,
    "ps": 1129,
    "eld": 1130,
    "whom": 1131,
    "lord.": 1132,
    "Pr": 1133,
    "Her": 1134,
    "str": 1135,
    "es;": 1136,
    "broke": 1137,
    "dow": 1138,
    "prove": 1139,
    "death,": 1140,
    "Hath": 1141,
    "sl": 1142,
    "AND:": 1143,
    "cra": 1144,
    "ting": 1145,
    "makes": 1146,
    "bed": 1147,
    "gre": 1148,
    "earth": 1149,
    "vill": 1150,
    "Duke": 1151,
    "DUCH": 1152,
    "men,": 1153,
    "pass": 1154,
    "vy": 1155,
    "rant": 1156,
    "se,": 1157,
    "pher": 1158,
    "son,": 1159,
    "sleep": 1160,
    "gl": 1161,
    "Provo": 1162,
    "ROS": 1163,
    "Ange": 1164,
    "while": 1165,
    "faul": 1166,
    "kne": 1167,
    "vis": 1168,
    "sound": 1169,
    "dre": 1170,
    "anca": 1171,
    "father,": 1172,
    "Angelo": 1173,
    "lieve": 1174,
    "grave": 1175,
    "ange": 1176,
    "another": 1177,
    "eech": 1178,
    "doub": 1179,
    "IA:": 1180,
    "prison": 1181,
    "wa": 1182,
    "traitor": 1183,
    "dost": 1184,
    "VI:": 1185,
    "CAMIL": 1186,
    "CAMILLO:": 1187,
    "Would": 1188,
    "even": 1189,
    "matter": 1190,
    "Even": 1191,
    "sword": 1192,
    "form": 1193,
    "sure": 1194,
    "pati": 1195,
    "cle": 1196,
    "bal": 1197,
    "wilt": 1198,
    "DUCHESS": 1199,
    "RI": 1200,
    "cor": 1201,
    "fight": 1202,
    "ze": 1203,
    "arn": 1204,
    "aint": 1205,
    "vereign": 1206,
    "tw": 1207,
    "life,": 1208,
    "HORT": 1209,
    "HORTEN": 1210,
    "HORTENS": 1211,
    "vent": 1212,
    "has": 1213,
    "us.": 1214,
    "But,": 1215,
    "offi": 1216,
    "ouch": 1217,
    "Upon": 1218,
    "lady": 1219,
    "father's": 1220,
    "draw": 1221,
    "d:": 1222,
    "sovereign": 1223,
    "sed": 1224,
    "ish'd": 1225,
    "thou,": 1226,
    "FRI": 1227,
    "FRIAR": 1228,
    "HORTENSIO:": 1229,
    "rather": 1230,
    "virt": 1231,
    "send": 1232,
    "ion,": 1233,
    "i'": 1234,
    "va": 1235,
    "me:": 1236,
    "play": 1237,
    "Are": 1238,
    "fortune": 1239,
    "Thi": 1240,
    "own:": 1241,
    "talk": 1242,
    "Ty": 1243,
    "BAP": 1244,
    "BAPTI": 1245,
    "BAPTIST": 1246,
    "BAPTISTA:": 1247,
    "reven": 1248,
    "mb": 1249,
    "sla": 1250,
    "COM": 1251,
    "COMINIUS:": 1252,
    "ged": 1253,
    "ire": 1254,
    "cess": 1255,
    "false": 1256,
    "EDWARD:": 1257,
    "AUT": 1258,
    "AUTOL": 1259,
    "AUTOLY": 1260,
    "AUTOLYC": 1261,
    "AUTOLYCUS:": 1262,
    "its": 1263,
    "ity,": 1264,
    "selves": 1265,
    "want": 1266,
    "deser": 1267,
    "hang": 1268,
    "At": 1269,
    ",--": 1270,
    "More": 1271,
    "wom": 1272,
    "spo": 1273,
    "reason": 1274,
    "sir.": 1275,
    "Thir": 1276,
    "o'er": 1277,
    "comfort": 1278,
    "woman": 1279,
    "Murder": 1280,
    "CLAR": 1281,
    "CLARENCE:": 1282,
    "EY:": 1283,
    "ield": 1284,
    "hone": 1285,
    "breath": 1286,
    "med": 1287,
    "stran": 1288,
    "wn": 1289,
    "wind": 1290,
    "Third": 1291,
    "l,": 1292,
    "shalt": 1293,
    "tress": 1294,
    "happy": 1295,
    "Provost:": 1296,
    "common": 1297,
    "prom": 1298,
    "Take": 1299,
    "cer": 1300,
    "Gentle": 1301,
    "ell": 1302,
    "ck,": 1303,
    "lies": 1304,
    "fect": 1305,
    "thee.": 1306,
    "lau": 1307,
    "iss": 1308,
    "holy": 1309,
    "aut": 1310,
    "vant:": 1311,
    "NOR": 1312,
    "BEN": 1313,
    "BENVOL": 1314,
    "BENVOLIO:": 1315,
    "Clown:": 1316,
    "les": 1317,
    "enough": 1318,
    "igh": 1319,
    "sold": 1320,
    "Sh": 1321,
    "sin": 1322,
    "merc": 1323,
    "state": 1324,
    "GRUM": 1325,
    "GRUMIO:": 1326,
    "PROS": 1327,
    "PROSPER": 1328,
    "PROSPERO:": 1329,
    "vice": 1330,
    "only": 1331,
    "hate": 1332,
    "t.": 1333,
    "ctor": 1334,
    "ates": 1335,
    "air": 1336,
    "fore,": 1337,
    "eye": 1338,
    "hum": 1339,
    "bur": 1340,
    "stra": 1341,
    "here,": 1342,
    "pect": 1343,
    "villain": 1344,
    "Murderer:": 1345,
    "MERCU": 1346,
    "MERCUTIO:": 1347,
    "cian": 1348,
    "ery": 1349,
    "nature": 1350,
    "care": 1351,
    "body": 1352,
    "Li": 1353,
    "all,": 1354,
    "that,": 1355,
    "anta": 1356,
    "Were": 1357,
    "three": 1358,
    "worn": 1359,
    "born": 1360,
    "cri": 1361,
    "Ju": 1362,
    "her,": 1363,
    "dream": 1364,
    "LUCENTIO:": 1365,
    "answer": 1366,
    "hop": 1367,
    "point": 1368,
    "ye": 1369,
    "ask": 1370,
    "quest": 1371,
    "sister": 1372,
    "beaut": 1373,
    "LAND:": 1374,
    "Servant:": 1375,
    "POM": 1376,
    "POMP": 1377,
    "fur": 1378,
    "way,": 1379,
    "yield": 1380,
    "Con": 1381,
    "country": 1382,
    "Ro": 1383,
    "sir;": 1384,
    "win": 1385,
    "fire": 1386,
    "beseech": 1387,
    "wish": 1388,
    "Was": 1389,
    "dang": 1390,
    "ning": 1391,
    "ph": 1392,
    "saw": 1393,
    "Give": 1394,
    "ost": 1395,
    "Al": 1396,
    "subject": 1397,
    "bit": 1398,
    "oath": 1399,
    "foul": 1400,
    "PAU": 1401,
    "PAUL": 1402,
    "PAULINA:": 1403,
    "gainst": 1404,
    "deli": 1405,
    "al,": 1406,
    "words": 1407,
    "gether": 1408,
    "appe": 1409,
    "that's": 1410,
    "faith": 1411,
    "seen": 1412,
    "ar,": 1413,
    "force": 1414,
    "me?": 1415,
    "wound": 1416,
    "gentleman": 1417,
    "POMPEY:": 1418,
    "GREM": 1419,
    "GREMIO:": 1420,
    "'t.": 1421,
    "soldi": 1422,
    "sm": 1423,
    "gener": 1424,
    "ior": 1425,
    "well,": 1426,
    "wis": 1427,
    "Go,": 1428,
    "VOLUM": 1429,
    "VOLUMN": 1430,
    "VOLUMNIA:": 1431,
    "yourself": 1432,
    "free": 1433,
    "horse": 1434,
    "Look": 1435,
    "'d.": 1436,
    "ori": 1437,
    "gro": 1438,
    "cla": 1439,
    "England": 1440,
    "POL": 1441,
    "POLI": 1442,
    "POLIX": 1443,
    "POLIXEN": 1444,
    "POLIXENES:": 1445,
    "why": 1446,
    "them,": 1447,
    "ers,": 1448,
    "break": 1449,
    "hal": 1450,
    "not.": 1451,
    "Some": 1452,
    "him;": 1453,
    "got": 1454,
    "beat": 1455,
    "so.": 1456,
    "ent,": 1457,
    "Serving": 1458,
    "Servingman:": 1459,
    "HAST": 1460,
    "HASTING": 1461,
    "HASTINGS:": 1462,
    "prin": 1463,
    "BER": 1464,
    "GON": 1465,
    "bat": 1466,
    "Did": 1467,
    "cre": 1468,
    "ves,": 1469,
    "together": 1470,
    "unt": 1471,
    "sing": 1472,
    "children": 1473,
    "believe": 1474,
    "dem": 1475,
    "pain": 1476,
    "lives": 1477,
    "let's": 1478,
    "Can": 1479,
    "et,": 1480,
    "Hast": 1481,
    "majest": 1482,
    "Lu": 1483,
    "T:": 1484,
    "Tybal": 1485,
    "LAU": 1486,
    "LAUR": 1487,
    "LAURENCE:": 1488,
    "he's": 1489,
    "bour": 1490,
    "this,": 1491,
    "told": 1492,
    "command": 1493,
    "ga": 1494,
    "warrant": 1495,
    "save": 1496,
    "you;": 1497,
    "May": 1498,
    "lam": 1499,
    "sight": 1500,
    "wat": 1501,
    "Clarence": 1502,
    "BY:": 1503,
    "Juli": 1504,
    "Pet": 1505,
    "ius": 1506,
    "proud": 1507,
    "oft": 1508,
    "business": 1509,
    "ne'er": 1510,
    "plain": 1511,
    "change": 1512,
    "him:": 1513,
    "friends": 1514,
    "farewell": 1515,
    "within": 1516,
    "be,": 1517,
    "lords,": 1518,
    "cousin": 1519,
    "CLI": 1520,
    "CLIF": 1521,
    "CLIFF": 1522,
    "NORTH": 1523,
    "NORTHUM": 1524,
    "NORTHUMBER": 1525,
    "NORTHUMBERLAND:": 1526,
    "ris": 1527,
    "honest": 1528,
    "known": 1529,
    "Though": 1530,
    "trust": 1531,
    "worthy": 1532,
    "half": 1533,
    "dest": 1534,
    "ID": 1535,
    "return": 1536,
    "VI": 1537,
    "bloody": 1538,
    "welcome": 1539,
    "you?": 1540,
    "shame": 1541,
    "sad": 1542,
    "gold": 1543,
    "cold": 1544,
    "day,": 1545,
    "rance": 1546,
    "ford,": 1547,
    "Marcius": 1548,
    "wond": 1549,
    "purpose": 1550,
    "y?": 1551,
    "through": 1552,
    "vour": 1553,
    "ator:": 1554,
    "Com": 1555,
    "s'": 1556,
    "hard": 1557,
    "truth": 1558,
    "gue": 1559,
    "de,": 1560,
    "grow": 1561,
    "without": 1562,
    "left": 1563,
    "nurse": 1564,
    "kiss": 1565,
    "ANN": 1566,
    "ANNE:": 1567,
    "Mon": 1568,
    "report": 1569,
    "ve,": 1570,
    "mark": 1571,
    "Le": 1572,
    "news": 1573,
    "Had": 1574,
    "tender": 1575,
    "pluck": 1576,
    "Whi": 1577,
    "athe": 1578,
    "es:": 1579,
    "times": 1580,
    "rel": 1581,
    "learn": 1582,
    "fe,": 1583,
    "heir": 1584,
    "Clif": 1585,
    "PR": 1586,
    "PRINC": 1587,
    "Sign": 1588,
    "ONE:": 1589,
    "IAN:": 1590,
    "cons": 1591,
    "curse": 1592,
    "fit": 1593,
    "found": 1594,
    "Gre": 1595,
    "Tell": 1596,
    "obe": 1597,
    "death.": 1598,
    "ush": 1599,
    "e'er": 1600,
    "past": 1601,
    "court": 1602,
    "thyself": 1603,
    "ised": 1604,
    "mistress": 1605,
    "Edward's": 1606,
    "pen": 1607,
    "ster,": 1608,
    "Ah,": 1609,
    "to-morrow": 1610,
    "ORD:": 1611,
    "Bol": 1612,
    "Boling": 1613,
    "Bolingbroke": 1614,
    "Signior": 1615,
    "strong": 1616,
    "Re": 1617,
    "Should": 1618,
    "well.": 1619,
    "tro": 1620,
    "late": 1621,
    "on.": 1622,
    "more,": 1623,
    "sworn": 1624,
    "Farewell": 1625,
    "person": 1626,
    "bow": 1627,
    "fet": 1628,
    "sil": 1629,
    "pity": 1630,
    "pair": 1631,
    "ground": 1632,
    "sea": 1633,
    "Whose": 1634,
    "murder": 1635,
    "Cam": 1636,
    "Ca": 1637,
    "fault": 1638,
    "ition": 1639,
    "up,": 1640,
    "instru": 1641,
    "things": 1642,
    "bold": 1643,
    "you:": 1644,
    "entreat": 1645,
    "danger": 1646,
    "Me": 1647,
    "blow": 1648,
    "deep": 1649,
    "woo": 1650,
    "dut": 1651,
    "devil": 1652,
    "enty": 1653,
    "ek": 1654,
    "claim": 1655,
    "lost": 1656,
    "lou": 1657,
    "king.": 1658,
    "Warwick,": 1659,
    "Monta": 1660,
    "centio": 1661,
    "we'll": 1662,
    "One": 1663,
    "Like": 1664,
    "he,": 1665,
    "quar": 1666,
    "strange": 1667,
    "def": 1668,
    "dom": 1669,
    "Sen": 1670,
    "lip": 1671,
    "Su": 1672,
    "letter": 1673,
    "doubt": 1674,
    "does": 1675,
    "ather": 1676,
    "again.": 1677,
    "dare": 1678,
    "toward": 1679,
    "ench": 1680,
    "bles": 1681,
    "Mast": 1682,
    "straight": 1683,
    "soon": 1684,
    "enter": 1685,
    "hands": 1686,
    "heavy": 1687,
    "slain": 1688,
    "Po": 1689,
    "age,": 1690,
    "enemy": 1691,
    "ob": 1692,
    "city": 1693,
    "friends,": 1694,
    "it:": 1695,
    "each": 1696,
    "no,": 1697,
    "cry": 1698,
    "Mess": 1699,
    "Messeng": 1700,
    "Messenger:": 1701,
    "move": 1702,
    "AUF": 1703,
    "AUFID": 1704,
    "AUFIDIUS:": 1705,
    "ist": 1706,
    "sue": 1707,
    "choo": 1708,
    "open": 1709,
    "worth": 1710,
    "counter": 1711,
    "touch": 1712,
    "ecut": 1713,
    "Jo": 1714,
    "sup": 1715,
    "will,": 1716,
    "brother,": 1717,
    "Lord:": 1718,
    "fol": 1719,
    "God,": 1720,
    "FL": 1721,
    "FLORI": 1722,
    "FLORIZ": 1723,
    "FLORIZEL:": 1724,
    "ling": 1725,
    "grant": 1726,
    "means": 1727,
    "mock": 1728,
    "brought": 1729,
    "press": 1730,
    "These": 1731,
    "prof": 1732,
    "thinks": 1733,
    "harm": 1734,
    "all.": 1735,
    "cro": 1736,
    "widow": 1737,
    "execut": 1738,
    "ace,": 1739,
    "bir": 1740,
    "hand,": 1741,
    "woe": 1742,
    "LE:": 1743,
    "TON": 1744,
    "ARI": 1745,
    "ION": 1746,
    "Clau": 1747,
    "Claudi": 1748,
    "ceed": 1749,
    "au": 1750,
    "bar": 1751,
    "cal": 1752,
    "ishe": 1753,
    "rich": 1754,
    "feel": 1755,
    "at,": 1756,
    "rew": 1757,
    "Senator:": 1758,
    "Mad": 1759,
    "charge": 1760,
    "tears": 1761,
    "itself": 1762,
    "consu": 1763,
    "jud": 1764,
    "her.": 1765,
    "near": 1766,
    "banish": 1767,
    "as,": 1768,
    "Gentleman:": 1769,
    "God's": 1770,
    "SE": 1771,
    "resol": 1772,
    "Against": 1773,
    "Cap": 1774,
    "deliver": 1775,
    "I'": 1776,
    "MARC": 1777,
    "lead": 1778,
    "stor": 1779,
    "cho": 1780,
    "what's": 1781,
    "field": 1782,
    "bound": 1783,
    "lose": 1784,
    "stren": 1785,
    "streng": 1786,
    "pos": 1787,
    "adv": 1788,
    "De": 1789,
    "pleasure": 1790,
    "dr": 1791,
    "them.": 1792,
    "twenty": 1793,
    "it?": 1794,
    "desire": 1795,
    "foot": 1796,
    "sake": 1797,
    "d.": 1798,
    "apt": 1799,
    "women": 1800,
    "y!": 1801,
    "Glou": 1802,
    "Glouce": 1803,
    "RICHARD:": 1804,
    "Shepher": 1805,
    "SEBA": 1806,
    "SEBAST": 1807,
    "SEBASTIAN:": 1808,
    "tit": 1809,
    "it;": 1810,
    "fection": 1811,
    "blood,": 1812,
    "counsel": 1813,
    "wise": 1814,
    "MARCIUS:": 1815,
    "What's": 1816,
    "ed;": 1817,
    "ity.": 1818,
    "val": 1819,
    "behold": 1820,
    "ilt": 1821,
    "quick": 1822,
    "ance,": 1823,
    "burn": 1824,
    "same": 1825,
    "virtu": 1826,
    "either": 1827,
    "lord;": 1828,
    "fearful": 1829,
    "wife,": 1830,
    "years": 1831,
    "mus": 1832,
    "ingha": 1833,
    "OW": 1834,
    "Camill": 1835,
    "Shepherd:": 1836,
    "sur": 1837,
    "gods": 1838,
    "main": 1839,
    "general": 1840,
    "fer": 1841,
    "this?": 1842,
    "le.": 1843,
    "Vol": 1844,
    "strike": 1845,
    "suc": 1846,
    "Till": 1847,
    "seek": 1848,
    "ched": 1849,
    "done,": 1850,
    "dro": 1851,
    "vow": 1852,
    "remember": 1853,
    "wret": 1854,
    "time,": 1855,
    "dam": 1856,
    "why,": 1857,
    "loving": 1858,
    "dish": 1859,
    "boso": 1860,
    "sat": 1861,
    "umber": 1862,
    "Buck": 1863,
    "Buckingha": 1864,
    "tor": 1865,
    "BION": 1866,
    "BIOND": 1867,
    "BIONDELL": 1868,
    "BIONDELLO:": 1869,
    "'t,": 1870,
    "attend": 1871,
    "act": 1872,
    "there's": 1873,
    "pret": 1874,
    "bell": 1875,
    "says": 1876,
    ".'": 1877,
    "ready": 1878,
    "Ha": 1879,
    "har": 1880,
    "outh": 1881,
    "Au": 1882,
    "fid": 1883,
    "Then,": 1884,
    "cover": 1885,
    "ween": 1886,
    "Lad": 1887,
    "ches": 1888,
    "haste": 1889,
    "given": 1890,
    "mother,": 1891,
    "sign": 1892,
    "one.": 1893,
    "something": 1894,
    "sto": 1895,
    "voic": 1896,
    "ness,": 1897,
    "canst": 1898,
    "queen,": 1899,
    "Norfol": 1900,
    "speak.": 1901,
    "suff": 1902,
    "become": 1903,
    "loved": 1904,
    "ms": 1905,
    "indeed": 1906,
    "ious": 1907,
    "flatter": 1908,
    "know,": 1909,
    "!'": 1910,
    "miss": 1911,
    "n'd": 1912,
    "heaven,": 1913,
    "uncle": 1914,
    "wast": 1915,
    "looks": 1916,
    "serve": 1917,
    "ed:": 1918,
    "Wel": 1919,
    "wixt": 1920,
    "cept": 1921,
    "pie": 1922,
    "live,": 1923,
    "kn": 1924,
    "knew": 1925,
    "watch": 1926,
    "or,": 1927,
    "night,": 1928,
    "OP": 1929,
    "cred": 1930,
    "AUMER": 1931,
    "AUMERLE:": 1932,
    "ANTON": 1933,
    "ANTONIO:": 1934,
    "revenge": 1935,
    "enemi": 1936,
    "ash": 1937,
    "low": 1938,
    "thri": 1939,
    "ide": 1940,
    "pow": 1941,
    "stir": 1942,
    "man.": 1943,
    "Madam,": 1944,
    "Thus": 1945,
    "brave": 1946,
    "pra": 1947,
    "knows": 1948,
    "there,": 1949,
    "fast": 1950,
    "tongu": 1951,
    "ion.": 1952,
    "confess": 1953,
    "service": 1954,
    "mortal": 1955,
    "again,": 1956,
    "Tran": 1957,
    "aw": 1958,
    "hood": 1959,
    "allow": 1960,
    "Lanca": 1961,
    "king's": 1962,
    "didst": 1963,
    "Bi": 1964,
    "GONZ": 1965,
    "GONZA": 1966,
    "GONZALO:": 1967,
    "ger": 1968,
    "ped": 1969,
    "ous,": 1970,
    "used": 1971,
    "heart,": 1972,
    "Ye": 1973,
    "vers": 1974,
    "justice": 1975,
    "bun": 1976,
    "held": 1977,
    "certain": 1978,
    "eper": 1979,
    "inde": 1980,
    "hur": 1981,
    "took": 1982,
    "ing:": 1983,
    "ard,": 1984,
    "mine,": 1985,
    "brother's": 1986,
    "too,": 1987,
    "poss": 1988,
    "cast": 1989,
    "Most": 1990,
    "honour,": 1991,
    "star": 1992,
    "Say": 1993,
    "cloud": 1994,
    "book": 1995,
    "name,": 1996,
    "abo": 1997,
    "prop": 1998,
    "breathe": 1999,
    "Pom": 2000,
    "HER": 2001,
    "Kate": 2002,
    "Bianca": 2003,
    "come.": 2004,
    "do,": 2005,
    "ments": 2006,
    "ice,": 2007,
    "Bes": 2008,
    "four": 2009,
    "short": 2010,
    "brow": 2011,
    "breast": 2012,
    "whe": 2013,
    "speed": 2014,
    "Pl": 2015,
    "ian": 2016,
    "grie": 2017,
    "ment,": 2018,
    "consent": 2019,
    "often": 2020,
    "sir?": 2021,
    "gave": 2022,
    "bon": 2023,
    "spirit": 2024,
    "compan": 2025,
    "tempt": 2026,
    "cure": 2027,
    "ine,": 2028,
    "go,": 2029,
    "marry": 2030,
    "Marry,": 2031,
    "Romeo,": 2032,
    "io,": 2033,
    "Petru": 2034,
    "CLIFFORD:": 2035,
    "HERMI": 2036,
    "HERMIONE:": 2037,
    "CLAU": 2038,
    "CLAUD": 2039,
    "CLAUDIO:": 2040,
    "further": 2041,
    "usur": 2042,
    "ily": 2043,
    "ner": 2044,
    "cy": 2045,
    "Make": 2046,
    "sick": 2047,
    "man's": 2048,
    "favour": 2049,
    "ute": 2050,
    "throw": 2051,
    "Aufid": 2052,
    "Being": 2053,
    "along": 2054,
    "chance": 2055,
    "won": 2056,
    "love.": 2057,
    "spr": 2058,
    "look'd": 2059,
    "fly": 2060,
    "'twas": 2061,
    "night.": 2062,
    "ew": 2063,
    "yond": 2064,
    "hell": 2065,
    "dden": 2066,
    "Pray": 2067,
    "'twere": 2068,
    "Well": 2069,
    "ade": 2070,
    "world,": 2071,
    "begin": 2072,
    "test": 2073,
    "stu": 2074,
    "cient": 2075,
    "forget": 2076,
    "tin": 2077,
    "black": 2078,
    "div": 2079,
    "dd": 2080,
    "ses": 2081,
    "Away": 2082,
    "kno": 2083,
    "Per": 2084,
    "weak": 2085,
    "beauty": 2086,
    "land,": 2087,
    "LOR": 2088,
    "LORD": 2089,
    "married": 2090,
    "JO": 2091,
    "Claudio": 2092,
    "Petruchi": 2093,
    "MIRAN": 2094,
    "MIRAND": 2095,
    "MIRANDA:": 2096,
    "Spe": 2097,
    "here?": 2098,
    "speak,": 2099,
    "more.": 2100,
    "app": 2101,
    "battle": 2102,
    "al.": 2103,
    "liant": 2104,
    "appear": 2105,
    "youth": 2106,
    "gone,": 2107,
    "fir": 2108,
    "Call": 2109,
    "inter": 2110,
    "bad": 2111,
    "request": 2112,
    "loves": 2113,
    "me!": 2114,
    "alth": 2115,
    "post": 2116,
    "scar": 2117,
    "by,": 2118,
    "sk": 2119,
    "liber": 2120,
    "Therefore": 2121,
    "Har": 2122,
    "house,": 2123,
    "lan": 2124,
    "creat": 2125,
    "see,": 2126,
    "ings,": 2127,
    "PRINCE": 2128,
    "France": 2129,
    "satis": 2130,
    "JOH": 2131,
    "JOHN": 2132,
    "SON": 2133,
    "SON:": 2134,
    "ua": 2135,
    "Tybalt": 2136,
    "Before": 2137,
    "pay": 2138,
    "side": 2139,
    "ering": 2140,
    "but,": 2141,
    "head,": 2142,
    "ge.": 2143,
    "ends": 2144,
    "pale": 2145,
    "hind": 2146,
    "Since": 2147,
    "between": 2148,
    "safe": 2149,
    "madam": 2150,
    "bless": 2151,
    "That's": 2152,
    "neither": 2153,
    "so?": 2154,
    "dire": 2155,
    "'d;": 2156,
    "st.": 2157,
    "feast": 2158,
    "Cori": 2159,
    "Coriol": 2160,
    "Coriolan": 2161,
    "worship": 2162,
    "wed": 2163,
    "trou": 2164,
    "plo": 2165,
    "frown": 2166,
    "pit": 2167,
    "ried": 2168,
    "she's": 2169,
    "vel": 2170,
    "highness": 2171,
    "BU": 2172,
    "day.": 2173,
    "baw": 2174,
    "Juliet": 2175,
    "mio": 2176,
    "Speak": 2177,
    "course": 2178,
    "receive": 2179,
    "Because": 2180,
    "lic": 2181,
    "sigh": 2182,
    "fra": 2183,
    "Such": 2184,
    "Let's": 2185,
    "days": 2186,
    "town": 2187,
    "patience": 2188,
    "sible": 2189,
    "brief": 2190,
    "spoke": 2191,
    "dar": 2192,
    "stands": 2193,
    "trem": 2194,
    "lst": 2195,
    "dangerous": 2196,
    "away.": 2197,
    "Rome,": 2198,
    "'en": 2199,
    "therefore,": 2200,
    "cc": 2201,
    "bla": 2202,
    "mag": 2203,
    "pal": 2204,
    "servant": 2205,
    "having": 2206,
    "eyes,": 2207,
    "ent.": 2208,
    "sum": 2209,
    "speech": 2210,
    "ch,": 2211,
    "posed": 2212,
    "rough": 2213,
    "bosom": 2214,
    "possess": 2215,
    "strength": 2216,
    "dread": 2217,
    "fres": 2218,
    "chang": 2219,
    "lord?": 2220,
    "Edward,": 2221,
    "dead,": 2222,
    "Margar": 2223,
    "Ch": 2224,
    "CAT": 2225,
    "CATES": 2226,
    "CATESBY:": 2227,
    "next": 2228,
    "liege,": 2229,
    "crown,": 2230,
    "marriage": 2231,
    "NT:": 2232,
    "IT": 2233,
    "AG": 2234,
    "CA:": 2235,
    "Lucentio": 2236,
    "dog": 2237,
    "work": 2238,
    "you'll": 2239,
    "natur": 2240,
    "Their": 2241,
    "base": 2242,
    "ius,": 2243,
    "cks": 2244,
    "hence,": 2245,
    "action": 2246,
    "is.": 2247,
    "issue": 2248,
    "fill": 2249,
    "lar": 2250,
    "hours": 2251,
    "ges": 2252,
    "Must": 2253,
    "hot": 2254,
    "boy": 2255,
    "victor": 2256,
    "alk": 2257,
    "mit": 2258,
    "cheek": 2259,
    "Whom": 2260,
    "fles": 2261,
    "col": 2262,
    "Pe": 2263,
    "Ke": 2264,
    "forward": 2265,
    "title": 2266,
    "Saint": 2267,
    "earth,": 2268,
    "GREY:": 2269,
    "Lond": 2270,
    "or:": 2271,
    "ista": 2272,
    "Bapt": 2273,
    "mpet": 2274,
    "swi": 2275,
    "vile": 2276,
    "Ere": 2277,
    "ring": 2278,
    "brace": 2279,
    "LIA:": 2280,
    "madam,": 2281,
    "sudden": 2282,
    "viol": 2283,
    "ant:": 2284,
    "ta'en": 2285,
    "princely": 2286,
    "poison": 2287,
    "stain": 2288,
    "Both": 2289,
    "ary": 2290,
    "go.": 2291,
    "die.": 2292,
    "Si": 2293,
    "pite": 2294,
    "respect": 2295,
    "friend,": 2296,
    "Lest": 2297,
    "sal": 2298,
    "rt": 2299,
    "face,": 2300,
    "Unless": 2301,
    "flow": 2302,
    "drun": 2303,
    "Ge": 2304,
    "Geor": 2305,
    "BRA": 2306,
    "Lancaster": 2307,
    "gover": 2308,
    "Clifford": 2309,
    "prince,": 2310,
    "RIV": 2311,
    "RIVER": 2312,
    "RIVERS:": 2313,
    "cheer": 2314,
    "bitter": 2315,
    "good,": 2316,
    "Mer": 2317,
    "Par": 2318,
    "Ga": 2319,
    "Master": 2320,
    "BAL": 2321,
    "Isa": 2322,
    "BIAN": 2323,
    "BIANCA:": 2324,
    "Baptista": 2325,
    "ally": 2326,
    "Tru": 2327,
    "See": 2328,
    "think,": 2329,
    "il,": 2330,
    "cow": 2331,
    "sol": 2332,
    "ears": 2333,
    "valiant": 2334,
    "worse": 2335,
    "themselves": 2336,
    "bly": 2337,
    "visit": 2338,
    "dru": 2339,
    "AL": 2340,
    "ils": 2341,
    "fetch": 2342,
    "ied": 2343,
    "Tho": 2344,
    "ert": 2345,
    "here's": 2346,
    "pleas": 2347,
    "rever": 2348,
    "er's": 2349,
    "Yes,": 2350,
    "trium": 2351,
    "eas": 2352,
    "call'd": 2353,
    "scorn": 2354,
    "said,": 2355,
    "beggar": 2356,
    "loss": 2357,
    "lawful": 2358,
    "presence": 2359,
    "ant,": 2360,
    "myself,": 2361,
    "music": 2362,
    "quarrel": 2363,
    "pas": 2364,
    "him?": 2365,
    "Clarence,": 2366,
    "mighty": 2367,
    "Pa": 2368,
    "provo": 2369,
    "North": 2370,
    "soul,": 2371,
    "cousin,": 2372,
    "cle,": 2373,
    "arl": 2374,
    "GAU": 2375,
    "GAUNT:": 2376,
    "orten": 2377,
    "friar": 2378,
    "ELB": 2379,
    "ELBOW": 2380,
    "ELBOW:": 2381,
    "soft": 2382,
    "virtue": 2383,
    "He's": 2384,
    "arms": 2385,
    "ers;": 2386,
    "tale": 2387,
    "sir:": 2388,
    "rest,": 2389,
    "ung": 2390,
    "have,": 2391,
    "almost": 2392,
    "wall": 2393,
    "mouth": 2394,
    "tribun": 2395,
    "defend": 2396,
    "home,": 2397,
    "promise": 2398,
    "pray,": 2399,
    "patch": 2400,
    "aven": 2401,
    "ease": 2402,
    "met": 2403,
    "mine.": 2404,
    "pp'd": 2405,
    "ck'd": 2406,
    "him!": 2407,
    "not;": 2408,
    "sper": 2409,
    "news?": 2410,
    "merry": 2411,
    "Hold": 2412,
    "aid": 2413,
    "here.": 2414,
    "ined": 2415,
    "wash": 2416,
    "heart.": 2417,
    "occ": 2418,
    "least": 2419,
    "appro": 2420,
    "coming": 2421,
    "ancient": 2422,
    "gone.": 2423,
    "colour": 2424,
    "life.": 2425,
    "d;": 2426,
    "lament": 2427,
    "join": 2428,
    "rah,": 2429,
    "til": 2430,
    "case": 2431,
    "majesty": 2432,
    "bel": 2433,
    "close": 2434,
    "slaught": 2435,
    "Chris": 2436,
    "Ox": 2437,
    "mas": 2438,
    "kins": 2439,
    "boo": 2440,
    "TY": 2441,
    "AS": 2442,
    "AM": 2443,
    "MONT": 2444,
    "MONTAG": 2445,
    "MONTAGU": 2446,
    "MONTAGUE:": 2447,
    "bride": 2448,
    "ina": 2449,
    "Horten": 2450,
    "Hortensi": 2451,
    "tic": 2452,
    "mali": 2453,
    "ub": 2454,
    "'em": 2455,
    "eat": 2456,
    "remain": 2457,
    "mid": 2458,
    "gest": 2459,
    "thither": 2460,
    "bor": 2461,
    "goes": 2462,
    "cell": 2463,
    "buy": 2464,
    "foe": 2465,
    "success": 2466,
    "shepher": 2467,
    "hide": 2468,
    "beast": 2469,
    "ked": 2470,
    "writ": 2471,
    "dark": 2472,
    "triumph": 2473,
    "match": 2474,
    "die,": 2475,
    "Stand": 2476,
    "fortun": 2477,
    "ides": 2478,
    "so;": 2479,
    "hap": 2480,
    "chur": 2481,
    "banish'd": 2482,
    "Farewell,": 2483,
    "sir!": 2484,
    "witness": 2485,
    "Alas,": 2486,
    "Richard,": 2487,
    "sec": 2488,
    "Gloucester": 2489,
    "Northumber": 2490,
    "depart": 2491,
    "guil": 2492,
    "Doth": 2493,
    "ician": 2494,
    "Bohe": 2495,
    "Bohemi": 2496,
    "Pompe": 2497,
    "Kath": 2498,
    "Kathar": 2499,
    "Kate,": 2500,
    "ment.": 2501,
    "sland": 2502,
    "pretty": 2503,
    "bod": 2504,
    "trumpet": 2505,
    "small": 2506,
    "seat": 2507,
    "of,": 2508,
    "ation.": 2509,
    "glad": 2510,
    "vol": 2511,
    "wonder": 2512,
    "cen": 2513,
    "thence": 2514,
    "mour": 2515,
    "VIR": 2516,
    "VIRG": 2517,
    "VIRGI": 2518,
    "VIRGILIA:": 2519,
    "feit": 2520,
    "Swe": 2521,
    "eth": 2522,
    "indeed,": 2523,
    "We'll": 2524,
    "hearts": 2525,
    "thee;": 2526,
    "ile": 2527,
    "lect": 2528,
    "port": 2529,
    "gg": 2530,
    "ced": 2531,
    "add": 2532,
    "thee:": 2533,
    "morning": 2534,
    "drink": 2535,
    "cap": 2536,
    "consul": 2537,
    "office": 2538,
    "gent": 2539,
    "that?": 2540,
    "gall": 2541,
    "ided": 2542,
    "m.": 2543,
    "dishonour": 2544,
    "now.": 2545,
    "obedi": 2546,
    "inno": 2547,
    "wild": 2548,
    "mild": 2549,
    "cross": 2550,
    "ray": 2551,
    "an,": 2552,
    "not?": 2553,
    "knock": 2554,
    "cord": 2555,
    "down,": 2556,
    "fresh": 2557,
    "duty": 2558,
    "living": 2559,
    "now!": 2560,
    "secret": 2561,
    "Paul": 2562,
    "ing-": 2563,
    "kingdom": 2564,
    "los": 2565,
    "Ex": 2566,
    "order": 2567,
    "York,": 2568,
    "AT": 2569,
    "Richm": 2570,
    "Richmond": 2571,
    "father.": 2572,
    "QUEEN:": 2573,
    "PERD": 2574,
    "PERDIT": 2575,
    "PERDITA:": 2576,
    "ERD": 2577,
    "corn": 2578,
    "word,": 2579,
    "state,": 2580,
    "affection": 2581,
    "mile": 2582,
    "then?": 2583,
    "That,": 2584,
    "stant": 2585,
    "gir": 2586,
    "perform": 2587,
    "daughter,": 2588,
    "womb": 2589,
    "cher": 2590,
    "mir": 2591,
    "Mis": 2592,
    "dge": 2593,
    "posit": 2594,
    "ation,": 2595,
    "Which,": 2596,
    "man;": 2597,
    "ustom": 2598,
    "people,": 2599,
    "stood": 2600,
    "There's": 2601,
    "suit": 2602,
    "deserved": 2603,
    "quit": 2604,
    "willing": 2605,
    "not:": 2606,
    "flesh": 2607,
    "measure": 2608,
    "deny": 2609,
    "ty,": 2610,
    "trouble": 2611,
    "for,": 2612,
    "contin": 2613,
    "Here's": 2614,
    "goodly": 2615,
    "oop": 2616,
    "say.": 2617,
    "mercy": 2618,
    "bed,": 2619,
    "quiet": 2620,
    "possible": 2621,
    "kneel": 2622,
    "Lo": 2623,
    "'st,": 2624,
    "greet": 2625,
    "glor": 2626,
    "winter": 2627,
    "Yea,": 2628,
    "Henry's": 2629,
    "leis": 2630,
    "leisure": 2631,
    "sus": 2632,
    "England's": 2633,
    "usurp": 2634,
    "SET:": 2635,
    "seems": 2636,
    "Montagu": 2637,
    "MARIAN": 2638,
    "MARIANA:": 2639,
    "SL": 2640,
    "SLY:": 2641,
    "citizen": 2642,
    "thor": 2643,
    "miser": 2644,
    "suffer": 2645,
    "well;": 2646,
    "consci": 2647,
    "too.": 2648,
    "ighbour": 2649,
    "labour": 2650,
    "mut": 2651,
    "eye,": 2652,
    "rememb": 2653,
    "ks": 2654,
    "evil": 2655,
    "bling": 2656,
    "'t:": 2657,
    "ers.": 2658,
    "behind": 2659,
    "Fa": 2660,
    "ned": 2661,
    "So,": 2662,
    "needs": 2663,
    "cru": 2664,
    "whence": 2665,
    "yet,": 2666,
    "fing": 2667,
    "true,": 2668,
    "Pri": 2669,
    "sole": 2670,
    "es?": 2671,
    "ho!": 2672,
    "souls": 2673,
    "gates": 2674,
    "second": 2675,
    "I.": 2676,
    "big": 2677,
    "Look,": 2678,
    "encounter": 2679,
    "is't": 2680,
    "king:": 2681,
    "lease": 2682,
    "ies,": 2683,
    "down.": 2684,
    "come;": 2685,
    "doo": 2686,
    "condem": 2687,
    "prayers": 2688,
    "angry": 2689,
    "inf": 2690,
    "chamber": 2691,
    "men.": 2692,
    "five": 2693,
    "offend": 2694,
    "thee?": 2695,
    "roo": 2696,
    "While": 2697,
    "them;": 2698,
    "voice": 2699,
    "din": 2700,
    "rage": 2701,
    "seal": 2702,
    "Watch": 2703,
    "ignor": 2704,
    "piece": 2705,
    "Af": 2706,
    "king;": 2707,
    "water": 2708,
    "stre": 2709,
    "gard": 2710,
    "Out": 2711,
    "forbid": 2712,
    "bast": 2713,
    "hadst": 2714,
    "church": 2715,
    "what,": 2716,
    "fond": 2717,
    "a-": 2718,
    "because": 2719,
    "ison,": 2720,
    "desper": 2721,
    "nay,": 2722,
    "grand": 2723,
    "nurse,": 2724,
    "boy,": 2725,
    "kill'd": 2726,
    "prophe": 2727,
    "broad": 2728,
    "reign": 2729,
    "slew": 2730,
    "Planta": 2731,
    "Plantagen": 2732,
    "her;": 2733,
    "guilty": 2734,
    "Engl": 2735,
    "English": 2736,
    "tres": 2737,
    "Montague": 2738,
    "PARI": 2739,
    "PARIS:": 2740,
    "Pad": 2741,
    "Gru": 2742,
    "proceed": 2743,
    "servi": 2744,
    "Wor": 2745,
    "Men": 2746,
    "ways": 2747,
    "'s,": 2748,
    "sport": 2749,
    "gn": 2750,
    "quo": 2751,
    "fright": 2752,
    "sever": 2753,
    "coward": 2754,
    "Marcius,": 2755,
    "Too": 2756,
    "pin": 2757,
    "dispatch": 2758,
    "guard": 2759,
    "Sweet": 2760,
    "Ver": 2761,
    "th.": 2762,
    "done.": 2763,
    "Say,": 2764,
    "hund": 2765,
    "Am": 2766,
    "umb": 2767,
    "warm": 2768,
    "ket": 2769,
    "own,": 2770,
    "Fear": 2771,
    "conce": 2772,
    "are,": 2773,
    "wounds": 2774,
    "wouldst": 2775,
    "spur": 2776,
    "prosper": 2777,
    "rid": 2778,
    "Dis": 2779,
    "out.": 2780,
    "zed": 2781,
    "ror": 2782,
    "fat": 2783,
    "Think": 2784,
    "ate.": 2785,
    "es!": 2786,
    "laid": 2787,
    "reck": 2788,
    "ament": 2789,
    "treason": 2790,
    "out,": 2791,
    "mend": 2792,
    "rag": 2793,
    "banishe": 2794,
    "stop": 2795,
    "wak": 2796,
    "fru": 2797,
    "child,": 2798,
    "faith,": 2799,
    "vain": 2800,
    "moved": 2801,
    "heavens": 2802,
    "walk": 2803,
    "few": 2804,
    "himself,": 2805,
    "light,": 2806,
    "ured": 2807,
    "golden": 2808,
    "prote": 2809,
    "wert": 2810,
    "Norfolk,": 2811,
    "PETER:": 2812,
    "Ped": 2813,
    "ly;": 2814,
    "ular": 2815,
    "Unto": 2816,
    "'re": 2817,
    "por": 2818,
    "offence": 2819,
    "ance.": 2820,
    "greater": 2821,
    "mes": 2822,
    "ick": 2823,
    "shadow": 2824,
    "you!": 2825,
    "iness,": 2826,
    "myself.": 2827,
    "fear,": 2828,
    "fine": 2829,
    "chool": 2830,
    "exc": 2831,
    "LAR": 2832,
    "LART": 2833,
    "LARTIUS:": 2834,
    "march": 2835,
    "noise": 2836,
    "Vols": 2837,
    "r'd": 2838,
    "Or,": 2839,
    "this.": 2840,
    "double": 2841,
    "vey": 2842,
    "threat": 2843,
    "will.": 2844,
    "country's": 2845,
    "uri": 2846,
    "llo": 2847,
    "effect": 2848,
    "steel": 2849,
    "Therefore,": 2850,
    "le:": 2851,
    "lea": 2852,
    "temper": 2853,
    "bend": 2854,
    "venge": 2855,
    "knowled": 2856,
    "plant": 2857,
    "well-": 2858,
    "lips": 2859,
    "precious": 2860,
    "place,": 2861,
    "virtuous": 2862,
    "moun": 2863,
    "Could": 2864,
    "dies": 2865,
    "ble,": 2866,
    "so:": 2867,
    "choose": 2868,
    "En": 2869,
    "peace,": 2870,
    "try": 2871,
    "swift": 2872,
    "pest": 2873,
    "sentence": 2874,
    "liest": 2875,
    "despair": 2876,
    "rust": 2877,
    "entertain": 2878,
    "Fri": 2879,
    "news,": 2880,
    "To-": 2881,
    "to-day": 2882,
    "Bl": 2883,
    "sour": 2884,
    "thoughts": 2885,
    "Welcome,": 2886,
    "lord:": 2887,
    "George": 2888,
    "lordship": 2889,
    "Margaret": 2890,
    "Henry,": 2891,
    "DOR": 2892,
    "Hastings,": 2893,
    "her:": 2894,
    "Cates": 2895,
    "drown": 2896,
    "now?": 2897,
    "Paris": 2898,
    "hither,": 2899,
    "lust": 2900,
    "ail": 2901,
    "Earl": 2902,
    "Capu": 2903,
    "Watchman:": 2904,
    "Clifford,": 2905,
    "swain": 2906,
    "LEW": 2907,
    "LEWIS": 2908,
    "XI:": 2909,
    "Camillo,": 2910,
    "Bohemia": 2911,
    "ARIEL:": 2912,
    "First,": 2913,
    "Roman": 2914,
    "bs": 2915,
    "For,": 2916,
    "leg": 2917,
    "quoth": 2918,
    "ben": 2919,
    "king?": 2920,
    "fought": 2921,
    "cr": 2922,
    "company": 2923,
    "grown": 2924,
    "prepar": 2925,
    "army": 2926,
    "hair": 2927,
    "neck": 2928,
    "school": 2929,
    "hundred": 2930,
    "Within": 2931,
    "shake": 2932,
    "off,": 2933,
    "ons": 2934,
    "foolish": 2935,
    "!--": 2936,
    "lords": 2937,
    "antage": 2938,
    "clam": 2939,
    "p,": 2940,
    "Coriolanus": 2941,
    "fre": 2942,
    "seven": 2943,
    "lady,": 2944,
    "ks,": 2945,
    "white": 2946,
    "may,": 2947,
    "dry": 2948,
    "'d:": 2949,
    "Faith": 2950,
    "Faith,": 2951,
    "deter": 2952,
    "fled": 2953,
    "ch'd": 2954,
    "sense": 2955,
    "man!": 2956,
    "blo": 2957,
    "towards": 2958,
    "wice": 2959,
    "ces,": 2960,
    "like,": 2961,
    "pun": 2962,
    "withal": 2963,
    "Tow": 2964,
    "ston": 2965,
    "contr": 2966,
    "woman,": 2967,
    "blessed": 2968,
    "guest": 2969,
    "sim": 2970,
    "mone": 2971,
    "Ab": 2972,
    "be.": 2973,
    "understand": 2974,
    "deceive": 2975,
    "Bro": 2976,
    "wench": 2977,
    "unt,": 2978,
    "to-night": 2979,
    "sovereign,": 2980,
    "grace,": 2981,
    "London": 2982,
    "Joh": 2983,
    "John": 2984,
    "flower": 2985,
    "there?": 2986,
    "proclaim": 2987,
    "Mow": 2988,
    "Mowbr": 2989,
    "Aum": 2990,
    "Aumer": 2991,
    "Keeper": 2992,
    "Keeper:": 2993,
    "SAM": 2994,
    "SAMP": 2995,
    "SAMPSON:": 2996,
    "Capulet": 2997,
    "ona": 2998,
    "Tybalt,": 2999,
    "Camillo": 3000,
    "CUR": 3001,
    "CURTI": 3002,
    "CURTIS:": 3003,
    "Pedant:": 3004,
    "All:": 3005,
    "author": 3006,
    "hu": 3007,
    "intend": 3008,
    "neighbour": 3009,
    "alread": 3010,
    "hel": 3011,
    "supp": 3012,
    "pier": 3013,
    "cing": 3014,
    "Either": 3015,
    "hear,": 3016,
    "minister": 3017,
    "ats": 3018,
    "nder": 3019,
    "sword,": 3020,
    "gment": 3021,
    "valour": 3022,
    "ered": 3023,
    "cir": 3024,
    "Cor": 3025,
    "sort": 3026,
    "embrace": 3027,
    "cruel": 3028,
    "hearing": 3029,
    "Hear": 3030,
    "Aufidius": 3031,
    ":'": 3032,
    "Heaven": 3033,
    "both,": 3034,
    "ife": 3035,
    "whether": 3036,
    "in.": 3037,
    "farewell.": 3038,
    "yours,": 3039,
    "prithee,": 3040,
    "proof": 3041,
    "art,": 3042,
    "stro": 3043,
    "well:": 3044,
    "dri": 3045,
    "shed": 3046,
    "shows": 3047,
    "quickly": 3048,
    "Di": 3049,
    "fully": 3050,
    "soo": 3051,
    "host": 3052,
    "rot": 3053,
    "deadly": 3054,
    "honourable": 3055,
    "letters": 3056,
    "among": 3057,
    "manner": 3058,
    "blind": 3059,
    "inj": 3060,
    "struck": 3061,
    "six": 3062,
    "teen": 3063,
    "weed": 3064,
    "Put": 3065,
    "commend": 3066,
    "sure,": 3067,
    "priv": 3068,
    "Citizens:": 3069,
    "do.": 3070,
    "odd": 3071,
    "humble": 3072,
    "arri": 3073,
    "kept": 3074,
    "eness": 3075,
    "law,": 3076,
    "Peace,": 3077,
    "sei": 3078,
    "time.": 3079,
    "there.": 3080,
    "teach": 3081,
    "above": 3082,
    "note": 3083,
    "quite": 3084,
    "hand.": 3085,
    "groan": 3086,
    "shame,": 3087,
    "bids": 3088,
    "kindness": 3089,
    "Sirrah,": 3090,
    "lest": 3091,
    "herself": 3092,
    "ny": 3093,
    "BUR": 3094,
    "BURY:": 3095,
    "Poor": 3096,
    "live.": 3097,
    "tears,": 3098,
    "hope,": 3099,
    "humour": 3100,
    "dead.": 3101,
    "en,": 3102,
    "early": 3103,
    "satisfi": 3104,
    "deput": 3105,
    "subst": 3106,
    "age:": 3107,
    "Hereford": 3108,
    "ffi": 3109,
    "EX": 3110,
    "Montague,": 3111,
    "Mercut": 3112,
    "friar,": 3113,
    "Apo": 3114,
    "omer": 3115,
    "ANTI": 3116,
    "ANTIGON": 3117,
    "ANTIGONUS:": 3118,
    "ina,": 3119,
    "Padua": 3120,
    "fli": 3121,
    "tire": 3122,
    "tol": 3123,
    "Alack": 3124,
    "venture": 3125,
    "natural": 3126,
    "worst": 3127,
    "stone": 3128,
    "ties": 3129,
    "wisdom": 3130,
    "vail": 3131,
    "Volsc": 3132,
    "Comin": 3133,
    "dain": 3134,
    "on:": 3135,
    "broo": 3136,
    "Bet": 3137,
    "alone": 3138,
    "husband,": 3139,
    "Lady": 3140,
    "knee": 3141,
    "wing": 3142,
    "again;": 3143,
    "door": 3144,
    "excuse": 3145,
    "view": 3146,
    "gat": 3147,
    "ut,": 3148,
    "ier": 3149,
    "drop": 3150,
    "gentleman,": 3151,
    "forced": 3152,
    "own.": 3153,
    "gentlemen,": 3154,
    "together,": 3155,
    "Never": 3156,
    "ities": 3157,
    "Made": 3158,
    "er;": 3159,
    "name?": 3160,
    "qual": 3161,
    "priest": 3162,
    "custom": 3163,
    "deal": 3164,
    "utter": 3165,
    "ards": 3166,
    "true.": 3167,
    "ption": 3168,
    "thir": 3169,
    "laugh": 3170,
    "thee!": 3171,
    "inking": 3172,
    "war,": 3173,
    "ual": 3174,
    "Show": 3175,
    "honour.": 3176,
    "ourselves": 3177,
    "heads": 3178,
    "Bid": 3179,
    "firm": 3180,
    "'Twas": 3181,
    "demand": 3182,
    "world.": 3183,
    "thro": 3184,
    "going": 3185,
    "execution": 3186,
    "aking": 3187,
    "son.": 3188,
    "arest": 3189,
    "avo": 3190,
    "dwell": 3191,
    "wedd": 3192,
    "alter": 3193,
    "ni": 3194,
    "imag": 3195,
    "dur": 3196,
    "hands,": 3197,
    "was,": 3198,
    "pare": 3199,
    "ack": 3200,
    "loy": 3201,
    "Tower": 3202,
    "queen's": 3203,
    "abroad": 3204,
    "wretched": 3205,
    "creature": 3206,
    "men's": 3207,
    "unts": 3208,
    "iful": 3209,
    "set,": 3210,
    "mal": 3211,
    "bright": 3212,
    "Buckingham,": 3213,
    "fle": 3214,
    "desperate": 3215,
    "stay.": 3216,
    "ardon,": 3217,
    "York.": 3218,
    "uncle,": 3219,
    "RAT": 3220,
    "RATCLIFF": 3221,
    "RATCLIFF:": 3222,
    "round": 3223,
    "drunk": 3224,
    "Mus": 3225,
    "Juliet,": 3226,
    "Angelo,": 3227,
    "Tranio,": 3228,
    "Petruchio": 3229,
    "conscience": 3230,
    "nature,": 3231,
    "yourselves": 3232,
    "wars": 3233,
    "sell": 3234,
    "former": 3235,
    "first,": 3236,
    "ras": 3237,
    "Des": 3238,
    "land.": 3239,
    "who,": 3240,
    "Under": 3241,
    "tread": 3242,
    "ides,": 3243,
    "aught": 3244,
    "power,": 3245,
    "hie": 3246,
    "Corio": 3247,
    "Corioli": 3248,
    "comfor": 3249,
    "consid": 3250,
    "fell": 3251,
    "son:": 3252,
    "counten": 3253,
    "Fi": 3254,
    "truth,": 3255,
    "wag": 3256,
    "Hark": 3257,
    "ope": 3258,
    "ers:": 3259,
    "mur": 3260,
    "tun": 3261,
    "convey": 3262,
    "shepherd": 3263,
    "cease": 3264,
    "Please": 3265,
    "incl": 3266,
    "dull": 3267,
    "proper": 3268,
    "les,": 3269,
    "perceive": 3270,
    "times,": 3271,
    "occas": 3272,
    "sy": 3273,
    "Death": 3274,
    "ker": 3275,
    "vengeance": 3276,
    "wherefore": 3277,
    "sea,": 3278,
    "taken": 3279,
    "wife.": 3280,
    ":--": 3281,
    "Mine": 3282,
    "tune": 3283,
    "crave": 3284,
    "spake": 3285,
    "ures": 3286,
    "After": 3287,
    "patient": 3288,
    "speaks": 3289,
    "concl": 3290,
    "awhile": 3291,
    "stoop": 3292,
    "scarce": 3293,
    "Yet,": 3294,
    "leep": 3295,
    "fold": 3296,
    "selves,": 3297,
    "wail": 3298,
    "hand:": 3299,
    "faint": 3300,
    "forgot": 3301,
    "vell": 3302,
    "dle": 3303,
    "loo": 3304,
    "Wi": 3305,
    "age.": 3306,
    "summer": 3307,
    "part,": 3308,
    "bite": 3309,
    "morn": 3310,
    "mean,": 3311,
    "grace.": 3312,
    "alous": 3313,
    "arch": 3314,
    "vious": 3315,
    "y-": 3316,
    "mn": 3317,
    "sain": 3318,
    "dead;": 3319,
    "Rut": 3320,
    "shar": 3321,
    "love;": 3322,
    "afford": 3323,
    "Buckingham": 3324,
    "marry,": 3325,
    "queen.": 3326,
    "due": 3327,
    "death;": 3328,
    "room": 3329,
    "day!": 3330,
    "Norfolk": 3331,
    "eem": 3332,
    "l:": 3333,
    "steal": 3334,
    "BIS": 3335,
    "BISH": 3336,
    "BISHOP": 3337,
    "shrew": 3338,
    "STAN": 3339,
    "STANLE": 3340,
    "STANLEY:": 3341,
    "shri": 3342,
    "tract": 3343,
    "Fran": 3344,
    "Wilt": 3345,
    "tyrant": 3346,
    "ama": 3347,
    "haste,": 3348,
    "offer": 3349,
    "master,": 3350,
    "TYBAL": 3351,
    "TYBALT:": 3352,
    "PRINCE:": 3353,
    "Mant": 3354,
    "Barn": 3355,
    "Vin": 3356,
    "chief": 3357,
    "us:": 3358,
    "lean": 3359,
    "ude": 3360,
    "always": 3361,
    "foll": 3362,
    "idle": 3363,
    "What!": 3364,
    "bb": 3365,
    "ires": 3366,
    "hate,": 3367,
    "feed": 3368,
    "ume": 3369,
    "I'ld": 3370,
    "arti": 3371,
    "modest": 3372,
    "circ": 3373,
    "ls": 3374,
    "table": 3375,
    "abs": 3376,
    "died": 3377,
    "Ind": 3378,
    "Methinks": 3379,
    "cat": 3380,
    "wra": 3381,
    "on;": 3382,
    "phy": 3383,
    "ron": 3384,
    "Anti": 3385,
    "condu": 3386,
    "to,": 3387,
    "weigh": 3388,
    "are.": 3389,
    "cape": 3390,
    "'gainst": 3391,
    "ref": 3392,
    "faced": 3393,
    "ing;": 3394,
    "gif": 3395,
    "cried": 3396,
    "lamb": 3397,
    "pride": 3398,
    "thi": 3399,
    "malice": 3400,
    "kna": 3401,
    "roar": 3402,
    "necess": 3403,
    "bot": 3404,
    "ors": 3405,
    "health": 3406,
    "deeds": 3407,
    "place.": 3408,
    "ise,": 3409,
    "ild": 3410,
    "sheep": 3411,
    "cer:": 3412,
    "'twixt": 3413,
    "leng": 3414,
    "last,": 3415,
    "sake,": 3416,
    "vish": 3417,
    "man?": 3418,
    "private": 3419,
    "chol": 3420,
    "judgment": 3421,
    "were,": 3422,
    "drawn": 3423,
    "How!": 3424,
    "cock": 3425,
    "words,": 3426,
    "'?": 3427,
    "fran": 3428,
    "rupt": 3429,
    "leave,": 3430,
    "death:": 3431,
    "this:": 3432,
    "fiery": 3433,
    "bas": 3434,
    "go:": 3435,
    "accuse": 3436,
    "knave": 3437,
    "safet": 3438,
    "tyran": 3439,
    "justice,": 3440,
    "mayst": 3441,
    "love's": 3442,
    "Here,": 3443,
    "moon": 3444,
    "Once": 3445,
    "much.": 3446,
    "ine.": 3447,
    "whilst": 3448,
    "To-morrow": 3449,
    "prevent": 3450,
    "fellow,": 3451,
    "pursu": 3452,
    "reg": 3453,
    "soldiers": 3454,
    "parent": 3455,
    "affair": 3456,
    "whis": 3457,
    "enjoy": 3458,
    "mother's": 3459,
    "she,": 3460,
    "Art": 3461,
    "daughter.": 3462,
    "stern": 3463,
    "Brother": 3464,
    "kindred": 3465,
    "BRAK": 3466,
    "BRAKEN": 3467,
    "BRAKENBURY:": 3468,
    "sister,": 3469,
    "lord!": 3470,
    "tide": 3471,
    "weary": 3472,
    "empt": 3473,
    "del": 3474,
    "Dost": 3475,
    "wicked": 3476,
    "month": 3477,
    "wrong,": 3478,
    "simple": 3479,
    "thereof": 3480,
    "innocent": 3481,
    "as!": 3482,
    "ining": 3483,
    "gentlemen": 3484,
    "mage": 3485,
    "govern": 3486,
    "Stan": 3487,
    "Stanle": 3488,
    "head.": 3489,
    "promised": 3490,
    "right,": 3491,
    "sire": 3492,
    "THOM": 3493,
    "sacred": 3494,
    "Somer": 3495,
    "Lewis": 3496,
    "Tranio": 3497,
    "Gremio": 3498,
    "Petruchio,": 3499,
    "away,": 3500,
    "rician": 3501,
    "account": 3502,
    "Capi": 3503,
    "Menen": 3504,
    "suitor": 3505,
    "slander": 3506,
    "You,": 3507,
    "benef": 3508,
    "e!": 3509,
    "iff": 3510,
    "word.": 3511,
    "fire,": 3512,
    "sho": 3513,
    "aside": 3514,
    "passing": 3515,
    "hung": 3516,
    "death!": 3517,
    "See,": 3518,
    "us;": 3519,
    "Aufidius,": 3520,
    "face.": 3521,
    "borne": 3522,
    "honours": 3523,
    "east": 3524,
    "Inde": 3525,
    "cu": 3526,
    "Fie,": 3527,
    "lend": 3528,
    "thoughts,": 3529,
    "carry": 3530,
    "Whilst": 3531,
    "bleed": 3532,
    "smil": 3533,
    "Fl": 3534,
    "plague": 3535,
    "Offi": 3536,
    "Having": 3537,
    "top": 3538,
    "deb": 3539,
    "which,": 3540,
    "blush": 3541,
    "condition": 3542,
    "rotten": 3543,
    "jour": 3544,
    "motion": 3545,
    "fla": 3546,
    "ging": 3547,
    "stuff": 3548,
    "nobl": 3549,
    "gives": 3550,
    "leaves": 3551,
    "right.": 3552,
    "lived": 3553,
    "wanton": 3554,
    "plead": 3555,
    "prov": 3556,
    "stay,": 3557,
    "Turn": 3558,
    "quire": 3559,
    "dew": 3560,
    "ity:": 3561,
    "voices": 3562,
    "ines": 3563,
    "mann": 3564,
    "thing,": 3565,
    "yours": 3566,
    "adie": 3567,
    "adieu": 3568,
    "pract": 3569,
    "calls": 3570,
    "pt,": 3571,
    "less,": 3572,
    "cial": 3573,
    "house.": 3574,
    "er?": 3575,
    "twice": 3576,
    "sem": 3577,
    "bears": 3578,
    "doubt,": 3579,
    "pawn": 3580,
    "able,": 3581,
    "he'll": 3582,
    "eag": 3583,
    "over-": 3584,
    "onoun": 3585,
    "pul": 3586,
    "death?": 3587,
    "langu": 3588,
    "llen": 3589,
    "ado": 3590,
    "tongue,": 3591,
    "frame": 3592,
    "presently": 3593,
    "conqu": 3594,
    "ard.": 3595,
    "extre": 3596,
    "ce:": 3597,
    "peace.": 3598,
    "lady's": 3599,
    "in:": 3600,
    "tail": 3601,
    "breed": 3602,
    "ball": 3603,
    "Withou": 3604,
    "Without": 3605,
    "ated": 3606,
    "design": 3607,
    "Stay": 3608,
    "orious": 3609,
    "woman's": 3610,
    "throne": 3611,
    "mercy,": 3612,
    "ence;": 3613,
    "joint": 3614,
    "Myself": 3615,
    "loyal": 3616,
    "treach": 3617,
    "new-": 3618,
    "imprison": 3619,
    "fatal": 3620,
    "guilt": 3621,
    "DER": 3622,
    "DERBY:": 3623,
    "ill-": 3624,
    "villain,": 3625,
    "longer": 3626,
    "Dor": 3627,
    "Christi": 3628,
    "Christian": 3629,
    "broken": 3630,
    "Lord,": 3631,
    "fain": 3632,
    "eous": 3633,
    "hollow": 3634,
    "chase": 3635,
    "loath": 3636,
    "import": 3637,
    "orac": 3638,
    "Thomas": 3639,
    "clock": 3640,
    "rise": 3641,
    "master's": 3642,
    "Cous": 3643,
    "boot": 3644,
    "duke,": 3645,
    "weeping": 3646,
    "xen": 3647,
    "lim": 3648,
    "appare": 3649,
    "GREG": 3650,
    "GREGOR": 3651,
    "GREGORY:": 3652,
    "maid,": 3653,
    "Musician": 3654,
    "MIST": 3655,
    "MISTR": 3656,
    "MISTRESS": 3657,
    "OV": 3658,
    "OVERD": 3659,
    "OVERDONE:": 3660,
    "Barnard": 3661,
    "mio,": 3662,
    "Vincentio": 3663,
    "Grumio": 3664,
    "Katharina": 3665,
    "resolved": 3666,
    "fam": 3667,
    "Res": 3668,
    "Caius": 3669,
    "'t;": 3670,
    "away!": 3671,
    "guess": 3672,
    "ty.": 3673,
    "arms,": 3674,
    "Alack,": 3675,
    "stat": 3676,
    "instruct": 3677,
    "mutin": 3678,
    "bran": 3679,
    "several": 3680,
    "we,": 3681,
    "persu": 3682,
    "troop": 3683,
    "tribunes": 3684,
    "choice": 3685,
    "Where's": 3686,
    "Volsces": 3687,
    "arms.": 3688,
    "constant": 3689,
    "aim": 3690,
    "already": 3691,
    "faults": 3692,
    "fas": 3693,
    "fashi": 3694,
    "discover": 3695,
    "express": 3696,
    "wherein": 3697,
    "renown": 3698,
    "business,": 3699,
    "Indeed,": 3700,
    "unning": 3701,
    "Away,": 3702,
    "VAL": 3703,
    "VALER": 3704,
    "VALERIA:": 3705,
    "ladies": 3706,
    "shall,": 3707,
    "excell": 3708,
    "is:": 3709,
    "then.": 3710,
    "work,": 3711,
    "pound": 3712,
    "pack": 3713,
    "physi": 3714,
    "charged": 3715,
    "friends.": 3716,
    "threaten": 3717,
    "slave": 3718,
    "inform": 3719,
    "endure": 3720,
    "Wherein": 3721,
    "sme": 3722,
    "disposit": 3723,
    "outward": 3724,
    "thanks": 3725,
    "slave,": 3726,
    "doom": 3727,
    "rench": 3728,
    "shouldst": 3729,
    "'ld": 3730,
    "before.": 3731,
    "more:": 3732,
    "doing": 3733,
    "fair,": 3734,
    "san": 3735,
    "fan": 3736,
    "ache": 3737,
    "alone.": 3738,
    "perfect": 3739,
    "er-": 3740,
    "deserve": 3741,
    "ds": 3742,
    "whither": 3743,
    "preser": 3744,
    "inher": 3745,
    "ited": 3746,
    "Into": 3747,
    "sli": 3748,
    "blows": 3749,
    "Jove": 3750,
    "knowledge": 3751,
    "much,": 3752,
    "blest": 3753,
    "ution": 3754,
    "limb": 3755,
    "dev": 3756,
    "judge": 3757,
    "trick": 3758,
    "alm": 3759,
    "practise": 3760,
    "company.": 3761,
    "mast": 3762,
    "no;": 3763,
    "what?": 3764,
    "van": 3765,
    "home.": 3766,
    "sleep,": 3767,
    "awake": 3768,
    "courtes": 3769,
    "crow": 3770,
    "spoken": 3771,
    "traitor,": 3772,
    "be?": 3773,
    "blood.": 3774,
    "hand;": 3775,
    "asleep": 3776,
    "courage": 3777,
    "ances": 3778,
    "akes": 3779,
    "course,": 3780,
    "too:": 3781,
    "again:": 3782,
    "ident": 3783,
    "supper": 3784,
    "thine.": 3785,
    "know'st": 3786,
    "Great": 3787,
    "fool,": 3788,
    "Know": 3789,
    "welve": 3790,
    "rude": 3791,
    "passa": 3792,
    "I;": 3793,
    "wealth": 3794,
    "mess": 3795,
    "acqu": 3796,
    "prepare": 3797,
    "jealous": 3798,
    "advise": 3799,
    "lod": 3800,
    "tid": 3801,
    "mourn": 3802,
    "clouds": 3803,
    "dreadful": 3804,
    "commit": 3805,
    "be;": 3806,
    "Hastings": 3807,
    "king!": 3808,
    "cursed": 3809,
    "damned": 3810,
    "Rutland": 3811,
    "wof": 3812,
    "woful": 3813,
    "Gloucester,": 3814,
    "envious": 3815,
    "Northumberland,": 3816,
    "murd": 3817,
    "grief,": 3818,
    "ure,": 3819,
    "wand": 3820,
    "resign": 3821,
    "kings": 3822,
    "sons": 3823,
    "ldom": 3824,
    "end.": 3825,
    "green": 3826,
    "CH": 3827,
    "Hereford,": 3828,
    "sail": 3829,
    "went": 3830,
    "contract": 3831,
    "farther": 3832,
    "her!": 3833,
    "RR": 3834,
    "lands": 3835,
    "crown.": 3836,
    "Oxford,": 3837,
    "RICHM": 3838,
    "RICHMON": 3839,
    "RICHMOND:": 3840,
    "OX": 3841,
    "OXF": 3842,
    "OXFORD:": 3843,
    "Mowbray": 3844,
    "ax": 3845,
    "Gaunt": 3846,
    "wood": 3847,
    "girl": 3848,
    "groom": 3849,
    "clear": 3850,
    "Thur": 3851,
    "Thurs": 3852,
    "Musician:": 3853,
    "a.": 3854,
    "SOM": 3855,
    "SOMER": 3856,
    "SOMERSET:": 3857,
    "Pis": 3858,
    "Hortensio,": 3859,
    "good.": 3860,
    "Very": 3861,
    "accus": 3862,
    "ating": 3863,
    "knees": 3864,
    "tran": 3865,
    "ish,": 3866,
    "rain": 3867,
    "cup": 3868,
    "whole": 3869,
    "member": 3870,
    "cei": 3871,
    "senator": 3872,
    "kingly": 3873,
    "complain": 3874,
    "matter,": 3875,
    "opin": 3876,
    "lion": 3877,
    "meat": 3878,
    "petition": 3879,
    "them?": 3880,
    "Br": 3881,
    "envy": 3882,
    "Mark": 3883,
    "disdain": 3884,
    "Besides,": 3885,
    "circum": 3886,
    "here;": 3887,
    "band": 3888,
    "therein": 3889,
    "profess": 3890,
    "ly:": 3891,
    "ele": 3892,
    "Beseech": 3893,
    "becomes": 3894,
    "spit": 3895,
    "son?": 3896,
    "it!": 3897,
    "husband.": 3898,
    "alone,": 3899,
    "Ad": 3900,
    "like.": 3901,
    "ain,": 3902,
    "up.": 3903,
    "thunder": 3904,
    "Roman:": 3905,
    "silver": 3906,
    "prize": 3907,
    "spirit,": 3908,
    "iest": 3909,
    "issu": 3910,
    "hour,": 3911,
    "tial": 3912,
    "direct": 3913,
    "conduct": 3914,
    "Ho": 3915,
    "more;": 3916,
    "beheld": 3917,
    "yours.": 3918,
    "yea,": 3919,
    "nak": 3920,
    "wol": 3921,
    "occasion": 3922,
    "blame": 3923,
    "compl": 3924,
    "spend": 3925,
    "ces.": 3926,
    "enough.": 3927,
    "adventure": 3928,
    "Ha!": 3929,
    "ton": 3930,
    "Has": 3931,
    "welcome,": 3932,
    "window": 3933,
    "nest": 3934,
    "question": 3935,
    "easy": 3936,
    "Officer:": 3937,
    "iffer": 3938,
    "affect": 3939,
    "ify": 3940,
    "himself.": 3941,
    "Leave": 3942,
    "cti": 3943,
    "kin": 3944,
    "words.": 3945,
    "years,": 3946,
    "owe": 3947,
    "intent": 3948,
    "accept": 3949,
    "ful,": 3950,
    "Pray,": 3951,
    "joy,": 3952,
    "ation;": 3953,
    "show'd": 3954,
    "advis": 3955,
    "touch'd": 3956,
    "Who,": 3957,
    "fortunes": 3958,
    "curr": 3959,
    "taste": 3960,
    "despite": 3961,
    "Help": 3962,
    "weap": 3963,
    "quench": 3964,
    "bury": 3965,
    "pronoun": 3966,
    "AE": 3967,
    "heart's": 3968,
    "peril": 3969,
    "chair": 3970,
    "street": 3971,
    "extreme": 3972,
    "vex": 3973,
    "Believe": 3974,
    "thrust": 3975,
    "love!": 3976,
    "tongue.": 3977,
    "thou?": 3978,
    "bastard": 3979,
    "both.": 3980,
    "prison,": 3981,
    "all;": 3982,
    "back.": 3983,
    "lover": 3984,
    "conj": 3985,
    "access": 3986,
    "forsworn": 3987,
    "changed": 3988,
    "fro": 3989,
    "pure": 3990,
    "holds": 3991,
    "until": 3992,
    "shr": 3993,
    "eter": 3994,
    "ness.": 3995,
    "flowers": 3996,
    "paper": 3997,
    "ary.": 3998,
    "Pardon": 3999,
    "delight": 4000,
    "glas": 4001,
    "betwixt": 4002,
    "duke.": 4003,
    "emplo": 4004,
    "employ": 4005,
    "weight": 4006,
    "timely": 4007,
    "toad": 4008,
    "miserable": 4009,
    "humbly": 4010,
    "stab": 4011,
    "solemn": 4012,
    "penit": 4013,
    "Friar": 4014,
    "gross": 4015,
    "Prince": 4016,
    "torment": 4017,
    "?'": 4018,
    "Tut,": 4019,
    "continue": 4020,
    "hence;": 4021,
    "Oxford": 4022,
    "fruit": 4023,
    "woes": 4024,
    "slow": 4025,
    "fares": 4026,
    "Gra": 4027,
    "neg": 4028,
    "ion:": 4029,
    "France,": 4030,
    "El": 4031,
    "breath,": 4032,
    "resolve": 4033,
    "burthen": 4034,
    "hit": 4035,
    "her?": 4036,
    "step": 4037,
    "bel,": 4038,
    "-heart": 4039,
    "ns": 4040,
    "THOMAS": 4041,
    "MOW": 4042,
    "MOWBRA": 4043,
    "MOWBRAY:": 4044,
    "BUS": 4045,
    "BUSH": 4046,
    "BUSHY:": 4047,
    "Lady:": 4048,
    "Romeo!": 4049,
    "Hence": 4050,
    "EXET": 4051,
    "EXETER:": 4052,
    "suffi": 4053,
    "Sici": 4054,
    "MA": 4055,
    "MAMIL": 4056,
    "MAMILL": 4057,
    "MAMILLIUS:": 4058,
    "Poli": 4059,
    "Polixen": 4060,
    "Apollo": 4061,
    "MOP": 4062,
    "MOPS": 4063,
    "MOPSA:": 4064,
    "Isabel": 4065,
    "ABHOR": 4066,
    "ABHORSON:": 4067,
    "Bion": 4068,
    "Bionde": 4069,
    "Hortensio": 4070,
    "Tail": 4071,
    "atswain": 4072,
    "people.": 4073,
    "Is't": 4074,
    "wholes": 4075,
    "wholesome": 4076,
    "partic": 4077,
    "Capitol": 4078,
    "matter?": 4079,
    "hous": 4080,
    "serves": 4081,
    "ale": 4082,
    "Still": 4083,
    "discontent": 4084,
    "rash": 4085,
    "brain": 4086,
    "once,": 4087,
    "pub": 4088,
    "public": 4089,
    "benefit": 4090,
    "incre": 4091,
    "dep": 4092,
    "making": 4093,
    "prevail": 4094,
    "other,": 4095,
    "assist": 4096,
    "absence": 4097,
    "stam": 4098,
    "troth,": 4099,
    "obey": 4100,
    "hereafter": 4101,
    "Prithee,": 4102,
    "lis": 4103,
    "beyond": 4104,
    "infect": 4105,
    "shap": 4106,
    "hurt": 4107,
    "shut": 4108,
    "heel": 4109,
    "wore": 4110,
    "violent": 4111,
    "market": 4112,
    "place;": 4113,
    "offic": 4114,
    "party": 4115,
    "Three": 4116,
    "mil": 4117,
    "ors,": 4118,
    "us?": 4119,
    "he?": 4120,
    "shun": 4121,
    "rascal": 4122,
    "Ret": 4123,
    "purpose.": 4124,
    "advance": 4125,
    "all:": 4126,
    "reward": 4127,
    "forth,": 4128,
    "nose": 4129,
    "Bear": 4130,
    "sometime": 4131,
    "butcher": 4132,
    "ions": 4133,
    "prou": 4134,
    "reverend": 4135,
    "ter,": 4136,
    "dit": 4137,
    "wont": 4138,
    "know.": 4139,
    "had,": 4140,
    "root": 4141,
    "net": 4142,
    "build": 4143,
    "comple": 4144,
    "pu": 4145,
    "word:": 4146,
    "speak:": 4147,
    "mat": 4148,
    "devo": 4149,
    "giving": 4150,
    "determin": 4151,
    "dign": 4152,
    "painted": 4153,
    "perpet": 4154,
    "devise": 4155,
    "did,": 4156,
    "You'll": 4157,
    "air,": 4158,
    "standing": 4159,
    "witch": 4160,
    "dust": 4161,
    "stock": 4162,
    "cend": 4163,
    "plot": 4164,
    "Co": 4165,
    "catch": 4166,
    "none,": 4167,
    "that.": 4168,
    "Nothing": 4169,
    "fie,": 4170,
    "cause.": 4171,
    "gor": 4172,
    "hands.": 4173,
    "undertake": 4174,
    "armour": 4175,
    "do?": 4176,
    "list": 4177,
    "have.": 4178,
    "Lo,": 4179,
    "-in": 4180,
    "inst": 4181,
    "ground,": 4182,
    "intell": 4183,
    "birth": 4184,
    "head;": 4185,
    "'rt": 4186,
    "ites": 4187,
    "name;": 4188,
    "mere": 4189,
    "tar": 4190,
    "twelve": 4191,
    "looking": 4192,
    "durst": 4193,
    "ballad": 4194,
    "can,": 4195,
    "sits": 4196,
    "fail": 4197,
    "tomb": 4198,
    "Right": 4199,
    "expect": 4200,
    "Might": 4201,
    "capt": 4202,
    "go;": 4203,
    "bond": 4204,
    "rah": 4205,
    "dance": 4206,
    "long.": 4207,
    "withal.": 4208,
    "compass": 4209,
    "gru": 4210,
    "slain,": 4211,
    "'n": 4212,
    "Coun": 4213,
    "earth.": 4214,
    "Hold,": 4215,
    "corse": 4216,
    "smoo": 4217,
    "Brother,": 4218,
    "appoint": 4219,
    "Tower.": 4220,
    "begins": 4221,
    "confer": 4222,
    "too;": 4223,
    "Warwick's": 4224,
    "fig": 4225,
    "ursed": 4226,
    "happiness": 4227,
    "swallow": 4228,
    "sun,": 4229,
    "piteous": 4230,
    "repent": 4231,
    "duked": 4232,
    "dukedom": 4233,
    "mistake": 4234,
    "protector": 4235,
    "honesty": 4236,
    "dag": 4237,
    "arm,": 4238,
    "taught": 4239,
    "yonder": 4240,
    "England,": 4241,
    "life;": 4242,
    "tedious": 4243,
    "No;": 4244,
    "keeps": 4245,
    "Plantagenet,": 4246,
    "side,": 4247,
    "alive": 4248,
    "dead?": 4249,
    "pic": 4250,
    "Dear": 4251,
    "remembrance": 4252,
    "chide": 4253,
    "rest.": 4254,
    "ney": 4255,
    "ARCH": 4256,
    "born.": 4257,
    "Mayor:": 4258,
    "Catesby": 4259,
    "Richard's": 4260,
    "prisoner": 4261,
    "garden": 4262,
    "line": 4263,
    "ishop": 4264,
    "Love": 4265,
    "glory": 4266,
    "Harry": 4267,
    "asp": 4268,
    "luck": 4269,
    "shore": 4270,
    "-hearted": 4271,
    "assur": 4272,
    "shire": 4273,
    "song": 4274,
    "scept": 4275,
    "Bolingbroke,": 4276,
    "furn": 4277,
    "Marsha": 4278,
    "ress": 4279,
    "PERC": 4280,
    "PERCY:": 4281,
    "methinks": 4282,
    "ing?": 4283,
    "Verona": 4284,
    "Romeo's": 4285,
    "Mercutio": 4286,
    "Mantua": 4287,
    "Father": 4288,
    "BALTH": 4289,
    "BALTHAS": 4290,
    "BALTHASAR": 4291,
    "BALTHASAR:": 4292,
    "Nap": 4293,
    "Wid": 4294,
    "Widow": 4295,
    "Sicili": 4296,
    "Barnardine": 4297,
    "Tailor:": 4298,
    "done:": 4299,
    "human": 4300,
    "particular": 4301,
    "Worthy": 4302,
    "unknown": 4303,
    "masters,": 4304,
    "cannot,": 4305,
    "undone": 4306,
    "repe": 4307,
    "vide": 4308,
    "ily,": 4309,
    "rous": 4310,
    "disgrace": 4311,
    "body,": 4312,
    "smile": 4313,
    "steed": 4314,
    "sink": 4315,
    "Pat": 4316,
    "ience": 4317,
    "while,": 4318,
    "weal": 4319,
    "abhor": 4320,
    "increase": 4321,
    "mind,": 4322,
    "faction": 4323,
    "revol": 4324,
    "Tit": 4325,
    "spare": 4326,
    "carri": 4327,
    "fault,": 4328,
    "commiss": 4329,
    "seeing": 4330,
    "keeper": 4331,
    "no.": 4332,
    "instruction": 4333,
    "red,": 4334,
    "followers": 4335,
    "Sold": 4336,
    "Soldi": 4337,
    "ft,": 4338,
    "enemies": 4339,
    "ble.": 4340,
    "dra": 4341,
    "ury": 4342,
    "praise": 4343,
    "oppos": 4344,
    "'d?": 4345,
    "slip": 4346,
    "advantage": 4347,
    "Set": 4348,
    "delay": 4349,
    "Those": 4350,
    "his.": 4351,
    "command,": 4352,
    "pent": 4353,
    "vouch": 4354,
    "wretch": 4355,
    "ations": 4356,
    "power.": 4357,
    "sanct": 4358,
    "privile": 4359,
    "mill": 4360,
    "accord": 4361,
    "prayer": 4362,
    "sured": 4363,
    "thief": 4364,
    "Ti": 4365,
    "adver": 4366,
    "follows": 4367,
    "prosperous": 4368,
    "off.": 4369,
    "large": 4370,
    "received": 4371,
    "ald": 4372,
    "ish.": 4373,
    "ions,": 4374,
    "amen": 4375,
    "soever": 4376,
    "stand,": 4377,
    "stret": 4378,
    "met,": 4379,
    "terror": 4380,
    "dying": 4381,
    "them:": 4382,
    "do;": 4383,
    "monstr": 4384,
    "called": 4385,
    "cause,": 4386,
    "Four": 4387,
    "try,": 4388,
    "counterfeit": 4389,
    "Rep": 4390,
    "mock'd": 4391,
    "ignorant": 4392,
    "ters": 4393,
    "appre": 4394,
    "Lay": 4395,
    "daughter's": 4396,
    "fix": 4397,
    "haz": 4398,
    "hold,": 4399,
    "al'd": 4400,
    "solute": 4401,
    "ruin": 4402,
    "cares": 4403,
    "divine": 4404,
    "traitors": 4405,
    "Stay,": 4406,
    "peace!": 4407,
    "fie!": 4408,
    "seize": 4409,
    "trial": 4410,
    "nought": 4411,
    "on't.": 4412,
    "bare": 4413,
    "ush,": 4414,
    "lot": 4415,
    "virg": 4416,
    "heart;": 4417,
    "Sup": 4418,
    "ples": 4419,
    "Draw": 4420,
    "season": 4421,
    "urious": 4422,
    "number": 4423,
    "officer": 4424,
    "buried": 4425,
    "fortune's": 4426,
    "cunning": 4427,
    "heavens!": 4428,
    "venom": 4429,
    "still,": 4430,
    "behalf": 4431,
    "banishment": 4432,
    "intellig": 4433,
    "joyful": 4434,
    "slay": 4435,
    "Save": 4436,
    "enm": 4437,
    "house:": 4438,
    "avoid": 4439,
    "Long": 4440,
    "breast,": 4441,
    "clothe": 4442,
    "destroy": 4443,
    "children,": 4444,
    "thrive": 4445,
    "idence": 4446,
    "fear.": 4447,
    "amend": 4448,
    "thinks,": 4449,
    "request,": 4450,
    "ack,": 4451,
    "glorious": 4452,
    "gs": 4453,
    "light.": 4454,
    "father;": 4455,
    "mp": 4456,
    "ial": 4457,
    "Young": 4458,
    "attempt": 4459,
    "stead": 4460,
    "Ac": 4461,
    "strew": 4462,
    "repair": 4463,
    "stol": 4464,
    "bark": 4465,
    "treacher": 4466,
    "Tower,": 4467,
    "Mistress": 4468,
    "griev": 4469,
    "untimely": 4470,
    "cate": 4471,
    "whiles": 4472,
    "back,": 4473,
    "else,": 4474,
    "Plantagenet": 4475,
    "sharp": 4476,
    "maint": 4477,
    "suspect": 4478,
    "hateful": 4479,
    "wither'd": 4480,
    "stum": 4481,
    "thought,": 4482,
    "God!": 4483,
    "wake": 4484,
    "purse": 4485,
    "life?": 4486,
    "away;": 4487,
    "deem": 4488,
    "spent": 4489,
    "liege": 4490,
    "suspic": 4491,
    "Fro": 4492,
    "pardon,": 4493,
    "Ne": 4494,
    "morrow,": 4495,
    "led,": 4496,
    "none.": 4497,
    "think'st": 4498,
    "fret": 4499,
    "liff": 4500,
    "fairly": 4501,
    "Thanks,": 4502,
    "Ar": 4503,
    "Two": 4504,
    "birth,": 4505,
    "leave.": 4506,
    "disper": 4507,
    "inted": 4508,
    "Came": 4509,
    "bed;": 4510,
    "medi": 4511,
    "Page:": 4512,
    "tort": 4513,
    "safety": 4514,
    "alli": 4515,
    "liar": 4516,
    "lasting": 4517,
    "nothing;": 4518,
    "assurance": 4519,
    "shor": 4520,
    "NORF": 4521,
    "NORFOL": 4522,
    "NORFOLK:": 4523,
    "needful": 4524,
    "rose": 4525,
    "sceptre": 4526,
    "Just": 4527,
    "approach": 4528,
    "absent": 4529,
    "musician": 4530,
    "ROSS:": 4531,
    "special": 4532,
    "ghost": 4533,
    "palace": 4534,
    "weather": 4535,
    "profit": 4536,
    "dress": 4537,
    "be:": 4538,
    "raise": 4539,
    "thorn": 4540,
    "goodness": 4541,
    "seeming": 4542,
    "Luci": 4543,
    "assure": 4544,
    "bawd": 4545,
    "ide,": 4546,
    "Thursday": 4547,
    "vaul": 4548,
    "Vi": 4549,
    "mistres": 4550,
    "mistress,": 4551,
    "curst": 4552,
    "DORCA": 4553,
    "DORCAS:": 4554,
    "tap": 4555,
    "Master,": 4556,
    "Isabel,": 4557,
    "Katharina,": 4558,
    "Bianca,": 4559,
    "Boatswain": 4560,
    "patrician": 4561,
    "affli": 4562,
    "kes,": 4563,
    "famous": 4564,
    "senate": 4565,
    "Stri": 4566,
    "cking": 4567,
    "pear": 4568,
    "us!": 4569,
    "ished": 4570,
    "will;": 4571,
    "body's": 4572,
    "bearing": 4573,
    "answer.": 4574,
    "flour": 4575,
    "to't": 4576,
    "exam": 4577,
    "rebell": 4578,
    "deserves": 4579,
    "oak": 4580,
    "ushe": 4581,
    "fee": 4582,
    "bil": 4583,
    "granted": 4584,
    "Only": 4585,
    "business.": 4586,
    "bred": 4587,
    "greatest": 4588,
    "puts": 4589,
    "ay.": 4590,
    "brook": 4591,
    "rob": 4592,
    "made,": 4593,
    "press'd": 4594,
    "enemy,": 4595,
    "Whither": 4596,
    "Rome.": 4597,
    "ion;": 4598,
    "remove": 4599,
    "Bring": 4600,
    "prepared": 4601,
    "pleased": 4602,
    "cere": 4603,
    "sons,": 4604,
    "retire": 4605,
    "husband's": 4606,
    "thus,": 4607,
    "vest": 4608,
    "hire": 4609,
    "boy.": 4610,
    "teeth": 4611,
    "child.": 4612,
    "afterno": 4613,
    "news.": 4614,
    "up:": 4615,
    "shield": 4616,
    "fast,": 4617,
    "Soldier:": 4618,
    "jewel": 4619,
    "numb": 4620,
    "fight.": 4621,
    "fare": 4622,
    "ers'": 4623,
    "Bre": 4624,
    "citizens": 4625,
    "drum": 4626,
    "hound": 4627,
    "hither.": 4628,
    "other's": 4629,
    "camest": 4630,
    "silence": 4631,
    "rend": 4632,
    "ments,": 4633,
    "profan": 4634,
    "write": 4635,
    "gift": 4636,
    "sanctu": 4637,
    "ages": 4638,
    "tells": 4639,
    "too?": 4640,
    "amb": 4641,
    "ves.": 4642,
    "subjects": 4643,
    "another,": 4644,
    "ed?": 4645,
    "brings": 4646,
    "Tar": 4647,
    "nine": 4648,
    "Welcome": 4649,
    "tongues": 4650,
    "lets": 4651,
    "leads": 4652,
    "cheeks": 4653,
    "end,": 4654,
    "ity;": 4655,
    "rate": 4656,
    "lie,": 4657,
    "at.": 4658,
    "fellow.": 4659,
    "weeds": 4660,
    "death's": 4661,
    "itude": 4662,
    "mult": 4663,
    "truly": 4664,
    "would,": 4665,
    "melt": 4666,
    "gown": 4667,
    "thre": 4668,
    "'I": 4669,
    "service,": 4670,
    "country,": 4671,
    "thrice": 4672,
    "people's": 4673,
    "rage,": 4674,
    "bodies": 4675,
    "instant": 4676,
    "enforce": 4677,
    "wrought": 4678,
    "Read": 4679,
    "hardly": 4680,
    "foes": 4681,
    "yo": 4682,
    "honour'd": 4683,
    "thread": 4684,
    "bones": 4685,
    "pil": 4686,
    "rock": 4687,
    "AEdi": 4688,
    "AEdile:": 4689,
    "then;": 4690,
    "respected": 4691,
    "way.": 4692,
    "anger": 4693,
    "extrem": 4694,
    "self,": 4695,
    "Away!": 4696,
    "begun": 4697,
    "comes.": 4698,
    "Keep": 4699,
    "warlike": 4700,
    "wife's": 4701,
    "talk'd": 4702,
    "O'er": 4703,
    "father?": 4704,
    "Volscian": 4705,
    "banished": 4706,
    "merri": 4707,
    "advers": 4708,
    "bill": 4709,
    "drops": 4710,
    "unless": 4711,
    "ride": 4712,
    "term": 4713,
    "turns": 4714,
    "owl": 4715,
    "About": 4716,
    "better,": 4717,
    "record": 4718,
    "messeng": 4719,
    "freely": 4720,
    "join'd": 4721,
    "willingly": 4722,
    "Car": 4723,
    "haply": 4724,
    "dinn": 4725,
    "rand": 4726,
    "son!": 4727,
    "whisper": 4728,
    "carried": 4729,
    "yourself.": 4730,
    "sea-": 4731,
    "conquer": 4732,
    "haps": 4733,
    "unjust": 4734,
    "fif": 4735,
    "Hark,": 4736,
    "Conspir": 4737,
    "raised": 4738,
    "grieve": 4739,
    "nal": 4740,
    "villain!": 4741,
    "heavi": 4742,
    "rail": 4743,
    "lour": 4744,
    "cy,": 4745,
    "sends": 4746,
    "brother.": 4747,
    "perforce": 4748,
    "zz": 4749,
    "grievous": 4750,
    "slaughter'd": 4751,
    "empty": 4752,
    "circumst": 4753,
    "slaughter": 4754,
    "mind.": 4755,
    "wreck": 4756,
    "dead!": 4757,
    "story": 4758,
    "stroke": 4759,
    "b'd": 4760,
    "lace": 4761,
    "Ber": 4762,
    "maintain": 4763,
    "French": 4764,
    "River": 4765,
    "speak;": 4766,
    "been,": 4767,
    "art.": 4768,
    "depose": 4769,
    "DORSET:": 4770,
    "lovely": 4771,
    "loss,": 4772,
    "world's": 4773,
    "soul!": 4774,
    "fall,": 4775,
    "hopes": 4776,
    "ague": 4777,
    "paid": 4778,
    "braw": 4779,
    "perj": 4780,
    "enough,": 4781,
    "feeling": 4782,
    "say;": 4783,
    "Until": 4784,
    "hood,": 4785,
    "swell": 4786,
    "brief,": 4787,
    "bethink": 4788,
    "crown'd": 4789,
    "mayor": 4790,
    "old,": 4791,
    "o'clock": 4792,
    "Rat": 4793,
    "Ratc": 4794,
    "Ratcliff": 4795,
    "GH": 4796,
    "onest": 4797,
    "Margaret,": 4798,
    "sequ": 4799,
    "liberty": 4800,
    "Play": 4801,
    "majesty,": 4802,
    "scope": 4803,
    "upon,": 4804,
    "TYRR": 4805,
    "TYRREL:": 4806,
    "Exet": 4807,
    "Ire": 4808,
    "youth,": 4809,
    "chast": 4810,
    "Im": 4811,
    "kis": 4812,
    "Sal": 4813,
    "highness'": 4814,
    "seas": 4815,
    "Mil": 4816,
    "to-morrow.": 4817,
    "colours": 4818,
    "Northumberland": 4819,
    "Thou,": 4820,
    "Ghost": 4821,
    "fly.": 4822,
    "irest": 4823,
    "shine": 4824,
    "horse!": 4825,
    "say'st": 4826,
    "self-": 4827,
    "sometimes": 4828,
    "Marshal:": 4829,
    "GREEN": 4830,
    "GREEN:": 4831,
    "fury": 4832,
    "storm": 4833,
    "tall": 4834,
    "woe,": 4835,
    "Gentlemen,": 4836,
    "now;": 4837,
    "tut": 4838,
    "abuse": 4839,
    "stain'd": 4840,
    "deposed": 4841,
    "credit": 4842,
    "forbear": 4843,
    "parli": 4844,
    "maiden": 4845,
    "Rosal": 4846,
    "omen": 4847,
    "La": 4848,
    "three-": 4849,
    "play'd": 4850,
    "Hunts": 4851,
    "countenance": 4852,
    "el,": 4853,
    "Angelo.": 4854,
    "Claudio,": 4855,
    "Lucentio.": 4856,
    "Boatswain:": 4857,
    "ALON": 4858,
    "ALONS": 4859,
    "ALONSO:": 4860,
    "FERD": 4861,
    "FERDIN": 4862,
    "FERDINAND:": 4863,
    "services": 4864,
    "partly": 4865,
    "barren": 4866,
    "Ap": 4867,
    "gods,": 4868,
    "enemies.": 4869,
    "True,": 4870,
    "store": 4871,
    "daily": 4872,
    "instruments": 4873,
    "appet": 4874,
    "parts": 4875,
    "recei": 4876,
    "soldier,": 4877,
    "food": 4878,
    "finds": 4879,
    "horn": 4880,
    "urre": 4881,
    "is;": 4882,
    "Noble": 4883,
    "commanded": 4884,
    "below": 4885,
    "words:": 4886,
    "il'd": 4887,
    "that;": 4888,
    "rejo": 4889,
    "-like": 4890,
    "task": 4891,
    "swear,": 4892,
    "caught": 4893,
    "thither.": 4894,
    "forth.": 4895,
    "true;": 4896,
    "Fare": 4897,
    "swords": 4898,
    "Rather": 4899,
    "south": 4900,
    "ool": 4901,
    "Fo": 4902,
    "dares": 4903,
    "soul's": 4904,
    "exer": 4905,
    "exerc": 4906,
    "tune,": 4907,
    "market-": 4908,
    "Who's": 4909,
    "thus.": 4910,
    "tled": 4911,
    "exile": 4912,
    "fight,": 4913,
    "field,": 4914,
    "uten": 4915,
    "seest": 4916,
    "whip": 4917,
    "day's": 4918,
    "g,": 4919,
    "ises": 4920,
    "ses,": 4921,
    "treasure": 4922,
    "achie": 4923,
    "tribut": 4924,
    "-faced": 4925,
    "grows": 4926,
    "'d!": 4927,
    "tired": 4928,
    "deliver'd": 4929,
    "am.": 4930,
    "equal": 4931,
    "according": 4932,
    "love?": 4933,
    "men:": 4934,
    "now:": 4935,
    "nap": 4936,
    "charac": 4937,
    "thing.": 4938,
    "contro": 4939,
    "ence.": 4940,
    "mm": 4941,
    "third": 4942,
    "home:": 4943,
    "ition,": 4944,
    "grave.": 4945,
    "renowned": 4946,
    "this;": 4947,
    "up;": 4948,
    "newly": 4949,
    "coff": 4950,
    "ever.": 4951,
    "sway": 4952,
    "lock": 4953,
    "complex": 4954,
    "agree": 4955,
    "consul,": 4956,
    "tied": 4957,
    "sore": 4958,
    "maids": 4959,
    "nobles": 4960,
    "event": 4961,
    "devotion": 4962,
    "grat": 4963,
    "pleasing": 4964,
    "speak?": 4965,
    "fest": 4966,
    "o'er-": 4967,
    "pup": 4968,
    "vessel": 4969,
    "'Twere": 4970,
    "ceremon": 4971,
    "here:": 4972,
    "monstrous": 4973,
    "outh,": 4974,
    "havi": 4975,
    "single": 4976,
    "'em.": 4977,
    "desert": 4978,
    "enemies,": 4979,
    "boun": 4980,
    "Six": 4981,
    "masters": 4982,
    "yourself,": 4983,
    "pass'd": 4984,
    "denied": 4985,
    "occup": 4986,
    "vantage": 4987,
    "clouds,": 4988,
    "ler": 4989,
    "yoke": 4990,
    "Gi": 4991,
    "len": 4992,
    "usion": 4993,
    "other.": 4994,
    "tive": 4995,
    "Cannot": 4996,
    "ump": 4997,
    "hunt": 4998,
    "holp": 4999
  },
  "merges": [
    [
      "t",
      "h"
    ],
    [
      "o",
      "u"
    ],
    [
      "e",
      "r"
    ],
    [
      "i",
      "n"
    ],
    [
      "a",
      "n"
    ],
    [
      "th",
      "e"
    ],
    [
      "o",
      "r"
    ],
    [
      "i",
      "s"
    ],
    [
      "e",
      "n"
    ],
    [
      "a",
      "r"
    ],
    [
      "a",
      "t"
    ],
    [
      "o",
      "n"
    ],
    [
      "s",
      "t"
    ],
    [
      "l",
      "l"
    ],
    [
      "m",
      "e"
    ],
    [
      "t",
      "o"
    ],
    [
      "an",
      "d"
    ],
    [
      "h",
      "e"
    ],
    [
      "y",
      "ou"
    ],
    [
      "e",
      "s"
    ],
    [
      "n",
      "o"
    ],
    [
      "s",
      "e"
    ],
    [
      "h",
      "a"
    ],
    [
      "r",
      "e"
    ],
    [
      "o",
      "f"
    ],
    [
      "v",
      "e"
    ],
    [
      "i",
      "t"
    ],
    [
      "in",
      "g"
    ],
    [
      "b",
      "e"
    ],
    [
      "l",
      "e"
    ],
    [
      "w",
      "i"
    ],
    [
      "m",
      "y"
    ],
    [
      "h",
      "i"
    ],
    [
      "o",
      "w"
    ],
    [
      "c",
      "e"
    ],
    [
      "f",
      "or"
    ],
    [
      "a",
      "y"
    ],
    [
      "a",
      "s"
    ],
    [
      "c",
      "h"
    ],
    [
      "n",
      "d"
    ],
    [
      "er",
      "e"
    ],
    [
      "l",
      "d"
    ],
    [
      "i",
      "r"
    ],
    [
      "e",
      "d"
    ],
    [
      "u",
      "t"
    ],
    [
      "r",
      "o"
    ],
    [
      "no",
      "t"
    ],
    [
      "l",
      "i"
    ],
    [
      "d",
      "e"
    ],
    [
      "w",
      "e"
    ],
    [
      "h",
      "at"
    ],
    [
      "th",
      "at"
    ],
    [
      "g",
      "h"
    ],
    [
      "A",
      "nd"
    ],
    [
      "k",
      "e"
    ],
    [
      "'",
      "s"
    ],
    [
      "o",
      "o"
    ],
    [
      "ou",
      "r"
    ],
    [
      "wi",
      "th"
    ],
    [
      "s",
      ","
    ],
    [
      "o",
      "me"
    ],
    [
      "en",
      "t"
    ],
    [
      "h",
      "is"
    ],
    [
      "r",
      "i"
    ],
    [
      "you",
      "r"
    ],
    [
      "th",
      "ou"
    ],
    [
      "th",
      "er"
    ],
    [
      "O",
      ":"
    ],
    [
      "a",
      "d"
    ],
    [
      "a",
      "l"
    ],
    [
      "e",
      "t"
    ],
    [
      "'",
      "d"
    ],
    [
      "e",
      ","
    ],
    [
      "a",
      "ll"
    ],
    [
      "gh",
      "t"
    ],
    [
      "E",
      "N"
    ],
    [
      "u",
      "r"
    ],
    [
      "ha",
      "ve"
    ],
    [
      "hi",
      "m"
    ],
    [
      "I",
      "N"
    ],
    [
      "l",
      "y"
    ],
    [
      "s",
      "o"
    ],
    [
      "r",
      "a"
    ],
    [
      "th",
      "is"
    ],
    [
      "S",
      ":"
    ],
    [
      "or",
      "d"
    ],
    [
      "d",
      "o"
    ],
    [
      "u",
      "s"
    ],
    [
      "u",
      "n"
    ],
    [
      "h",
      "o"
    ],
    [
      "m",
      "a"
    ],
    [
      "A",
      "R"
    ],
    [
      "p",
      "e"
    ],
    [
      "ou",
      "ld"
    ],
    [
      "l",
      "o"
    ],
    [
      "h",
      "ere"
    ],
    [
      "oo",
      "d"
    ],
    [
      "i",
      "d"
    ],
    [
      "th",
      "y"
    ],
    [
      "v",
      "er"
    ],
    [
      "f",
      "a"
    ],
    [
      "ar",
      "e"
    ],
    [
      "c",
      "k"
    ],
    [
      "y",
      ","
    ],
    [
      "I",
      "O:"
    ],
    [
      "m",
      "an"
    ],
    [
      "t",
      "i"
    ],
    [
      "no",
      "w"
    ],
    [
      "T",
      "he"
    ],
    [
      "a",
      "m"
    ],
    [
      "s",
      "ha"
    ],
    [
      "wi",
      "ll"
    ],
    [
      "es",
      "s"
    ],
    [
      "n",
      "e"
    ],
    [
      "f",
      "e"
    ],
    [
      "a",
      "in"
    ],
    [
      "b",
      "ut"
    ],
    [
      "s",
      "u"
    ],
    [
      "ar",
      "d"
    ],
    [
      "h",
      "er"
    ],
    [
      "on",
      "e"
    ],
    [
      "U",
      "S:"
    ],
    [
      "t",
      "er"
    ],
    [
      "c",
      "on"
    ],
    [
      "g",
      "e"
    ],
    [
      "p",
      "r"
    ],
    [
      "T",
      "h"
    ],
    [
      "T",
      "o"
    ],
    [
      "en",
      "d"
    ],
    [
      "o",
      "m"
    ],
    [
      "r",
      "u"
    ],
    [
      "l",
      "a"
    ],
    [
      "b",
      "y"
    ],
    [
      "sha",
      "ll"
    ],
    [
      "ar",
      "t"
    ],
    [
      "m",
      "or"
    ],
    [
      "U",
      "C"
    ],
    [
      "s",
      "h"
    ],
    [
      "c",
      "ome"
    ],
    [
      "p",
      "o"
    ],
    [
      "IN",
      "G"
    ],
    [
      "u",
      "p"
    ],
    [
      "ro",
      "m"
    ],
    [
      "ow",
      "n"
    ],
    [
      "A",
      "N"
    ],
    [
      "t",
      "a"
    ],
    [
      "T",
      "hat"
    ],
    [
      "w",
      "hat"
    ],
    [
      "E",
      "R"
    ],
    [
      "O",
      "R"
    ],
    [
      "m",
      "o"
    ],
    [
      "se",
      "l"
    ],
    [
      "E",
      "T"
    ],
    [
      "i",
      "f"
    ],
    [
      "ou",
      "s"
    ],
    [
      "t",
      "e"
    ],
    [
      "g",
      "o"
    ],
    [
      "g",
      "ood"
    ],
    [
      "i",
      "ll"
    ],
    [
      "m",
      "u"
    ],
    [
      "q",
      "u"
    ],
    [
      "B",
      "ut"
    ],
    [
      "a",
      "th"
    ],
    [
      "h",
      "en"
    ],
    [
      "b",
      "le"
    ],
    [
      "i",
      "ght"
    ],
    [
      "i",
      "on"
    ],
    [
      "l",
      "ord"
    ],
    [
      "the",
      "e"
    ],
    [
      "'",
      "t"
    ],
    [
      "hi",
      "ch"
    ],
    [
      "k",
      "ing"
    ],
    [
      "'",
      "ll"
    ],
    [
      "A",
      ":"
    ],
    [
      "W",
      "hat"
    ],
    [
      "w",
      "as"
    ],
    [
      "b",
      "o"
    ],
    [
      "an",
      "t"
    ],
    [
      "i",
      "l"
    ],
    [
      "v",
      "en"
    ],
    [
      "K",
      "ING"
    ],
    [
      "s",
      "he"
    ],
    [
      "c",
      "a"
    ],
    [
      "f",
      "rom"
    ],
    [
      "in",
      "e"
    ],
    [
      "on",
      "g"
    ],
    [
      "b",
      "l"
    ],
    [
      "F",
      "or"
    ],
    [
      "we",
      "ll"
    ],
    [
      "u",
      "l"
    ],
    [
      "the",
      "m"
    ],
    [
      "s",
      "a"
    ],
    [
      "I",
      "C"
    ],
    [
      "a",
      "k"
    ],
    [
      "s",
      "ir"
    ],
    [
      "sel",
      "f"
    ],
    [
      "in",
      "d"
    ],
    [
      "O",
      "L"
    ],
    [
      "w",
      "ould"
    ],
    [
      "s",
      "."
    ],
    [
      "th",
      "ere"
    ],
    [
      "w",
      "or"
    ],
    [
      "c",
      "t"
    ],
    [
      "ay",
      ","
    ],
    [
      "lo",
      "ve"
    ],
    [
      "k",
      "now"
    ],
    [
      "p",
      "er"
    ],
    [
      "c",
      "an"
    ],
    [
      "ou",
      "t"
    ],
    [
      "i",
      "ve"
    ],
    [
      "E",
      "L"
    ],
    [
      "c",
      "om"
    ],
    [
      "mor",
      "e"
    ],
    [
      "the",
      "n"
    ],
    [
      "a",
      "g"
    ],
    [
      "le",
      "t"
    ],
    [
      "es",
      ","
    ],
    [
      "I",
      "US:"
    ],
    [
      "AR",
      "D"
    ],
    [
      "the",
      "ir"
    ],
    [
      "d",
      "i"
    ],
    [
      "M",
      "y"
    ],
    [
      "th",
      "an"
    ],
    [
      "c",
      "i"
    ],
    [
      "-",
      "-"
    ],
    [
      "ce",
      ","
    ],
    [
      "the",
      "y"
    ],
    [
      "S",
      "T"
    ],
    [
      "se",
      "e"
    ],
    [
      "o",
      ","
    ],
    [
      "I",
      "'ll"
    ],
    [
      "E",
      ":"
    ],
    [
      "r",
      "y"
    ],
    [
      "e",
      "p"
    ],
    [
      "li",
      "ke"
    ],
    [
      "e",
      "ar"
    ],
    [
      "s",
      "pe"
    ],
    [
      "O",
      "N"
    ],
    [
      "e",
      "st"
    ],
    [
      "me",
      ","
    ],
    [
      "w",
      "ere"
    ],
    [
      "b",
      "ro"
    ],
    [
      "p",
      "ro"
    ],
    [
      "a",
      "st"
    ],
    [
      "A",
      "s"
    ],
    [
      "s",
      "ay"
    ],
    [
      "is",
      "h"
    ],
    [
      "W",
      "e"
    ],
    [
      "in",
      "k"
    ],
    [
      "m",
      "ay"
    ],
    [
      "ha",
      "th"
    ],
    [
      "I",
      "I"
    ],
    [
      "ir",
      "st"
    ],
    [
      "ma",
      "ke"
    ],
    [
      "p",
      "le"
    ],
    [
      "u",
      "re"
    ],
    [
      "o",
      "l"
    ],
    [
      "Y",
      "ou"
    ],
    [
      "r",
      "ow"
    ],
    [
      "w",
      "ho"
    ],
    [
      "th",
      "ing"
    ],
    [
      "H",
      "e"
    ],
    [
      "t",
      "ru"
    ],
    [
      "for",
      "e"
    ],
    [
      "mu",
      "st"
    ],
    [
      "a",
      "p"
    ],
    [
      "at",
      "e"
    ],
    [
      "g",
      "ra"
    ],
    [
      "ou",
      "nd"
    ],
    [
      "i",
      "th"
    ],
    [
      "you",
      ","
    ],
    [
      "G",
      "o"
    ],
    [
      "a",
      "ve"
    ],
    [
      "s",
      "ome"
    ],
    [
      "oo",
      "k"
    ],
    [
      "sh",
      "ould"
    ],
    [
      "fa",
      "ther"
    ],
    [
      "f",
      "i"
    ],
    [
      "R",
      "O"
    ],
    [
      "ti",
      "me"
    ],
    [
      "T",
      "IO:"
    ],
    [
      "u",
      "se"
    ],
    [
      "d",
      ","
    ],
    [
      "up",
      "on"
    ],
    [
      "w",
      "ay"
    ],
    [
      "en",
      "ce"
    ],
    [
      "v",
      "es"
    ],
    [
      "s",
      "on"
    ],
    [
      "d",
      "id"
    ],
    [
      "ET",
      ":"
    ],
    [
      "er",
      ","
    ],
    [
      "A",
      "U"
    ],
    [
      "ha",
      "d"
    ],
    [
      "i",
      "g"
    ],
    [
      "re",
      "at"
    ],
    [
      "w",
      "ard"
    ],
    [
      "d",
      "is"
    ],
    [
      "h",
      "ow"
    ],
    [
      "w",
      "hich"
    ],
    [
      "de",
      "ath"
    ],
    [
      "ou",
      "n"
    ],
    [
      "w",
      "ord"
    ],
    [
      "f",
      "ri"
    ],
    [
      "e",
      "l"
    ],
    [
      "w",
      "o"
    ],
    [
      "I",
      "f"
    ],
    [
      "s",
      "p"
    ],
    [
      "w",
      "hen"
    ],
    [
      "to",
      "o"
    ],
    [
      "K",
      ":"
    ],
    [
      "m",
      "en"
    ],
    [
      "spe",
      "ak"
    ],
    [
      "ent",
      "le"
    ],
    [
      "I",
      "n"
    ],
    [
      "C",
      "A"
    ],
    [
      "ag",
      "ain"
    ],
    [
      "he",
      "art"
    ],
    [
      "IC",
      "H"
    ],
    [
      "R",
      "ICH"
    ],
    [
      "v",
      "i"
    ],
    [
      "f",
      "ul"
    ],
    [
      "t",
      ","
    ],
    [
      "D",
      "U"
    ],
    [
      "DU",
      "K"
    ],
    [
      "h",
      "and"
    ],
    [
      "er",
      "s"
    ],
    [
      "DUK",
      "E"
    ],
    [
      "y",
      "et"
    ],
    [
      "o",
      "ld"
    ],
    [
      "y",
      "."
    ],
    [
      "m",
      "ar"
    ],
    [
      "Th",
      "ou"
    ],
    [
      "u",
      "m"
    ],
    [
      "th",
      "ink"
    ],
    [
      "RICH",
      "ARD"
    ],
    [
      "e",
      "ver"
    ],
    [
      "EN",
      "TIO:"
    ],
    [
      "p",
      "l"
    ],
    [
      "r",
      "an"
    ],
    [
      "ta",
      "ke"
    ],
    [
      "ER",
      ":"
    ],
    [
      "W",
      "hich"
    ],
    [
      "s",
      "i"
    ],
    [
      "s",
      "we"
    ],
    [
      "W",
      "h"
    ],
    [
      "d",
      "ay"
    ],
    [
      "a",
      "c"
    ],
    [
      "Y",
      ":"
    ],
    [
      "O",
      ","
    ],
    [
      "he",
      "ar"
    ],
    [
      "B",
      "e"
    ],
    [
      "W",
      "ith"
    ],
    [
      "IN",
      "C"
    ],
    [
      "ig",
      "n"
    ],
    [
      "s",
      ":"
    ],
    [
      "sir",
      ","
    ],
    [
      "g",
      "ive"
    ],
    [
      "O",
      "f"
    ],
    [
      "n",
      "a"
    ],
    [
      "N",
      "o"
    ],
    [
      "g",
      "u"
    ],
    [
      "su",
      "ch"
    ],
    [
      "F",
      "irst"
    ],
    [
      "l",
      "and"
    ],
    [
      "mo",
      "st"
    ],
    [
      "bl",
      "ood"
    ],
    [
      "A",
      "B"
    ],
    [
      "e",
      "x"
    ],
    [
      "bro",
      "ther"
    ],
    [
      "d",
      "es"
    ],
    [
      "the",
      "se"
    ],
    [
      "te",
      "ll"
    ],
    [
      "he",
      "a"
    ],
    [
      "m",
      "ent"
    ],
    [
      "b",
      "a"
    ],
    [
      "m",
      "ine"
    ],
    [
      "e",
      "y"
    ],
    [
      "on",
      "our"
    ],
    [
      "b",
      "re"
    ],
    [
      "o",
      "ther"
    ],
    [
      "w",
      "here"
    ],
    [
      "L",
      "O"
    ],
    [
      "I",
      ":"
    ],
    [
      "ll",
      "ow"
    ],
    [
      "H",
      "ow"
    ],
    [
      "C",
      "ome"
    ],
    [
      "c",
      "oun"
    ],
    [
      "T",
      "his"
    ],
    [
      "E",
      "ST"
    ],
    [
      "l",
      "ook"
    ],
    [
      "ne",
      "w"
    ],
    [
      "s",
      ";"
    ],
    [
      "ed",
      ","
    ],
    [
      "UC",
      "H"
    ],
    [
      "fri",
      "end"
    ],
    [
      "W",
      "ho"
    ],
    [
      "ou",
      "l"
    ],
    [
      "g",
      "entle"
    ],
    [
      "m",
      "is"
    ],
    [
      "w",
      "ar"
    ],
    [
      "u",
      "ght"
    ],
    [
      "v",
      "o"
    ],
    [
      "G",
      "LO"
    ],
    [
      "GLO",
      "UC"
    ],
    [
      "GLOUC",
      "EST"
    ],
    [
      "GLOUCEST",
      "ER:"
    ],
    [
      "c",
      "hi"
    ],
    [
      "it",
      "y"
    ],
    [
      "i",
      "m"
    ],
    [
      "a",
      "f"
    ],
    [
      "v",
      "ing"
    ],
    [
      "r",
      "own"
    ],
    [
      "ha",
      "st"
    ],
    [
      "E",
      "EN"
    ],
    [
      "a",
      "b"
    ],
    [
      "L",
      "ord"
    ],
    [
      "in",
      "ce"
    ],
    [
      "L",
      "I"
    ],
    [
      "Go",
      "d"
    ],
    [
      "ur",
      "se"
    ],
    [
      "st",
      "er"
    ],
    [
      "d",
      "u"
    ],
    [
      "R",
      "ome"
    ],
    [
      "n",
      "ight"
    ],
    [
      "of",
      "f"
    ],
    [
      "l",
      "ess"
    ],
    [
      "fa",
      "ir"
    ],
    [
      "ma",
      "de"
    ],
    [
      "an",
      "g"
    ],
    [
      "or",
      "t"
    ],
    [
      "'",
      "st"
    ],
    [
      "Q",
      "U"
    ],
    [
      "QU",
      "EEN"
    ],
    [
      "V",
      "INC"
    ],
    [
      "VINC",
      "ENTIO:"
    ],
    [
      "h",
      "onour"
    ],
    [
      "an",
      "y"
    ],
    [
      "M",
      "ar"
    ],
    [
      "S",
      "e"
    ],
    [
      "ti",
      "on"
    ],
    [
      "mu",
      "ch"
    ],
    [
      "O",
      "F"
    ],
    [
      "n",
      "ess"
    ],
    [
      "an",
      "ce"
    ],
    [
      "er",
      ":"
    ],
    [
      "W",
      "here"
    ],
    [
      "ur",
      "n"
    ],
    [
      "the",
      "e,"
    ],
    [
      "lord",
      ","
    ],
    [
      "is",
      "e"
    ],
    [
      "m",
      "i"
    ],
    [
      "S",
      "o"
    ],
    [
      "I",
      "s"
    ],
    [
      "p",
      "re"
    ],
    [
      "st",
      "and"
    ],
    [
      "e",
      "f"
    ],
    [
      "b",
      "r"
    ],
    [
      "fe",
      "ar"
    ],
    [
      "H",
      "EN"
    ],
    [
      "'t",
      "is"
    ],
    [
      "N",
      "ow"
    ],
    [
      "r",
      "es"
    ],
    [
      "c",
      "he"
    ],
    [
      "t",
      "le"
    ],
    [
      "HEN",
      "R"
    ],
    [
      "HENR",
      "Y"
    ],
    [
      "on",
      "d"
    ],
    [
      "g",
      "reat"
    ],
    [
      "l",
      "t"
    ],
    [
      "n",
      "g"
    ],
    [
      "E",
      "S"
    ],
    [
      "u",
      "st"
    ],
    [
      "p",
      "art"
    ],
    [
      "it",
      ","
    ],
    [
      "ne",
      "ver"
    ],
    [
      "li",
      "e"
    ],
    [
      "OR",
      "I"
    ],
    [
      "p",
      "t"
    ],
    [
      "th",
      ","
    ],
    [
      "Y",
      "our"
    ],
    [
      "li",
      "ve"
    ],
    [
      "s",
      "c"
    ],
    [
      "ar",
      "m"
    ],
    [
      "con",
      "d"
    ],
    [
      "I",
      "t"
    ],
    [
      "j",
      "o"
    ],
    [
      "E",
      "S:"
    ],
    [
      "s",
      "er"
    ],
    [
      "c",
      "all"
    ],
    [
      "o",
      "'"
    ],
    [
      "re",
      "ad"
    ],
    [
      "f",
      "o"
    ],
    [
      "he",
      "ad"
    ],
    [
      "Y",
      "OR"
    ],
    [
      "YOR",
      "K:"
    ],
    [
      "be",
      "ar"
    ],
    [
      "it",
      "i"
    ],
    [
      "at",
      "ion"
    ],
    [
      "O",
      "r"
    ],
    [
      "be",
      "t"
    ],
    [
      "IN",
      "IUS:"
    ],
    [
      "can",
      "not"
    ],
    [
      "p",
      "a"
    ],
    [
      "hea",
      "ven"
    ],
    [
      "b",
      "er"
    ],
    [
      "a",
      "se"
    ],
    [
      "in",
      "t"
    ],
    [
      "no",
      "ble"
    ],
    [
      "P",
      "ET"
    ],
    [
      "f",
      "l"
    ],
    [
      "u",
      "nd"
    ],
    [
      "u",
      "e"
    ],
    [
      "be",
      "en"
    ],
    [
      "swe",
      "et"
    ],
    [
      "ver",
      "y"
    ],
    [
      "it",
      "."
    ],
    [
      "'",
      "T"
    ],
    [
      "A",
      "n"
    ],
    [
      "E",
      "D"
    ],
    [
      "ED",
      "W"
    ],
    [
      "EDW",
      "ARD"
    ],
    [
      "Wh",
      "y,"
    ],
    [
      "G",
      "R"
    ],
    [
      "for",
      "t"
    ],
    [
      "qu",
      "e"
    ],
    [
      "T",
      "H"
    ],
    [
      "re",
      "e"
    ],
    [
      "ou",
      "gh"
    ],
    [
      "m",
      "er"
    ],
    [
      "n",
      "or"
    ],
    [
      "U",
      "M"
    ],
    [
      "M",
      "I"
    ],
    [
      "M",
      "EN"
    ],
    [
      "p",
      "p"
    ],
    [
      "do",
      "th"
    ],
    [
      "L",
      "E"
    ],
    [
      "L",
      "UC"
    ],
    [
      "d",
      "a"
    ],
    [
      "ou",
      "se"
    ],
    [
      "l",
      "ad"
    ],
    [
      "me",
      "an"
    ],
    [
      "T",
      "here"
    ],
    [
      "i",
      "c"
    ],
    [
      "ing",
      ","
    ],
    [
      "I",
      "S"
    ],
    [
      "him",
      ","
    ],
    [
      "com",
      "m"
    ],
    [
      "man",
      ":"
    ],
    [
      "EL",
      "L"
    ],
    [
      "re",
      "st"
    ],
    [
      "W",
      "hen"
    ],
    [
      "t",
      "y"
    ],
    [
      "on",
      ","
    ],
    [
      "na",
      "me"
    ],
    [
      "a",
      "ge"
    ],
    [
      "E",
      "d"
    ],
    [
      "li",
      "fe"
    ],
    [
      "z",
      "en"
    ],
    [
      "M",
      "E"
    ],
    [
      "c",
      "o"
    ],
    [
      "s",
      "oul"
    ],
    [
      "w",
      "r"
    ],
    [
      "Ed",
      "ward"
    ],
    [
      "RO",
      "ME"
    ],
    [
      "ROME",
      "O:"
    ],
    [
      "MEN",
      "EN"
    ],
    [
      "MENEN",
      "IUS:"
    ],
    [
      "wor",
      "ld"
    ],
    [
      "B",
      "y"
    ],
    [
      "t",
      "r"
    ],
    [
      "re",
      "d"
    ],
    [
      "que",
      "en"
    ],
    [
      "R",
      "i"
    ],
    [
      "s",
      "?"
    ],
    [
      "L",
      "et"
    ],
    [
      "H",
      "ere"
    ],
    [
      "Th",
      "en"
    ],
    [
      "or",
      "n"
    ],
    [
      "p",
      "ri"
    ],
    [
      "d",
      "own"
    ],
    [
      "tru",
      "e"
    ],
    [
      "de",
      "ad"
    ],
    [
      "PET",
      "R"
    ],
    [
      "PETR",
      "UCH"
    ],
    [
      "PETRUCH",
      "IO:"
    ],
    [
      "'d",
      ","
    ],
    [
      "pr",
      "es"
    ],
    [
      "ow",
      "er"
    ],
    [
      "O",
      "M"
    ],
    [
      "pr",
      "ay"
    ],
    [
      "l",
      "ong"
    ],
    [
      "as",
      "s"
    ],
    [
      "him",
      "."
    ],
    [
      "A",
      "y,"
    ],
    [
      "a",
      "ke"
    ],
    [
      "be",
      "fore"
    ],
    [
      "Th",
      "an"
    ],
    [
      "o",
      "p"
    ],
    [
      "g",
      "r"
    ],
    [
      "wi",
      "ck"
    ],
    [
      "i",
      "e"
    ],
    [
      "mo",
      "ther"
    ],
    [
      "Come",
      ","
    ],
    [
      "le",
      "ave"
    ],
    [
      "ho",
      "ld"
    ],
    [
      "my",
      "self"
    ],
    [
      "u",
      "s,"
    ],
    [
      "e",
      "m"
    ],
    [
      "M",
      "AR"
    ],
    [
      "C",
      "l"
    ],
    [
      "H",
      "A"
    ],
    [
      "ON",
      "T"
    ],
    [
      "you",
      "."
    ],
    [
      "c",
      "our"
    ],
    [
      "s",
      "!"
    ],
    [
      "ca",
      "use"
    ],
    [
      "h",
      "ouse"
    ],
    [
      "u",
      "ll"
    ],
    [
      "p",
      "ut"
    ],
    [
      "me",
      "."
    ],
    [
      "re",
      "t"
    ],
    [
      "r",
      "en"
    ],
    [
      "C",
      "ORI"
    ],
    [
      "CORI",
      "OL"
    ],
    [
      "CORIOL",
      "AN"
    ],
    [
      "Se",
      "cond"
    ],
    [
      "be",
      "ing"
    ],
    [
      "t",
      "ri"
    ],
    [
      "N",
      "or"
    ],
    [
      "on",
      "e,"
    ],
    [
      "CORIOLAN",
      "US:"
    ],
    [
      "w",
      "hi"
    ],
    [
      "thou",
      "ght"
    ],
    [
      "gra",
      "ce"
    ],
    [
      "Ri",
      "ch"
    ],
    [
      "B",
      "A"
    ],
    [
      "chi",
      "ld"
    ],
    [
      "po",
      "or"
    ],
    [
      "li",
      "f"
    ],
    [
      "bo",
      "th"
    ],
    [
      "iti",
      "zen"
    ],
    [
      "ve",
      "d"
    ],
    [
      "it",
      "e"
    ],
    [
      "se",
      "t"
    ],
    [
      "S",
      "he"
    ],
    [
      "d",
      "er"
    ],
    [
      "w",
      "h"
    ],
    [
      "or",
      "e"
    ],
    [
      "th",
      "us"
    ],
    [
      "s",
      "w"
    ],
    [
      "da",
      "ught"
    ],
    [
      "f",
      "oo"
    ],
    [
      "t",
      "ra"
    ],
    [
      "IN",
      "A:"
    ],
    [
      "c",
      "l"
    ],
    [
      "ri",
      "ght"
    ],
    [
      "I",
      "V"
    ],
    [
      "D",
      ":"
    ],
    [
      "be",
      "g"
    ],
    [
      "II",
      "I:"
    ],
    [
      "m",
      "ight"
    ],
    [
      "S",
      "ir"
    ],
    [
      "D",
      "o"
    ],
    [
      "d",
      "one"
    ],
    [
      "at",
      "ter"
    ],
    [
      "c",
      "rown"
    ],
    [
      "p",
      "la"
    ],
    [
      "at",
      "ch"
    ],
    [
      "li",
      "ght"
    ],
    [
      "t",
      "en"
    ],
    [
      "k",
      ","
    ],
    [
      "s",
      "hi"
    ],
    [
      "b",
      "id"
    ],
    [
      "s",
      "s"
    ],
    [
      "W",
      "ar"
    ],
    [
      "War",
      "wick"
    ],
    [
      "ly",
      ","
    ],
    [
      "g",
      "ri"
    ],
    [
      "a",
      "ch"
    ],
    [
      "come",
      "s"
    ],
    [
      "H",
      "is"
    ],
    [
      "man",
      "y"
    ],
    [
      "a",
      ","
    ],
    [
      "not",
      ","
    ],
    [
      "es",
      "."
    ],
    [
      "l",
      "it"
    ],
    [
      "ll",
      ","
    ],
    [
      "'T",
      "is"
    ],
    [
      "A",
      "D"
    ],
    [
      "po",
      "se"
    ],
    [
      "IS",
      "AB"
    ],
    [
      "ISAB",
      "ELL"
    ],
    [
      "ISABELL",
      "A:"
    ],
    [
      "st",
      ","
    ],
    [
      "no",
      "thing"
    ],
    [
      "t",
      "al"
    ],
    [
      "p",
      "ar"
    ],
    [
      "k",
      "ind"
    ],
    [
      "t",
      "ong"
    ],
    [
      "b",
      "ra"
    ],
    [
      "ed",
      "."
    ],
    [
      "R",
      "AN"
    ],
    [
      "And",
      ","
    ],
    [
      "bet",
      "ter"
    ],
    [
      "m",
      "ad"
    ],
    [
      "a",
      "way"
    ],
    [
      "o",
      "se"
    ],
    [
      "J",
      "U"
    ],
    [
      "JU",
      "LI"
    ],
    [
      "JULI",
      "ET:"
    ],
    [
      "LE",
      "ONT"
    ],
    [
      "LEONT",
      "ES:"
    ],
    [
      "ci",
      "ous"
    ],
    [
      "thou",
      "gh"
    ],
    [
      "le",
      "d"
    ],
    [
      "u",
      "ck"
    ],
    [
      "a",
      "ble"
    ],
    [
      "L",
      "AD"
    ],
    [
      "LAD",
      "Y"
    ],
    [
      "V",
      "OL"
    ],
    [
      "b",
      "an"
    ],
    [
      "EN",
      "C"
    ],
    [
      "ENC",
      "E:"
    ],
    [
      "ti",
      "ll"
    ],
    [
      "st",
      "ay"
    ],
    [
      "sh",
      "ow"
    ],
    [
      "t",
      "end"
    ],
    [
      "i",
      "ther"
    ],
    [
      "B",
      "R"
    ],
    [
      "C",
      "itizen"
    ],
    [
      "again",
      "st"
    ],
    [
      "le",
      ","
    ],
    [
      "s",
      "ent"
    ],
    [
      "i",
      "ce"
    ],
    [
      "S",
      "er"
    ],
    [
      "N",
      "ay,"
    ],
    [
      "and",
      ","
    ],
    [
      "er",
      "."
    ],
    [
      "now",
      ","
    ],
    [
      "th",
      "ose"
    ],
    [
      "P",
      "ro"
    ],
    [
      "f",
      "t"
    ],
    [
      "s",
      "le"
    ],
    [
      "lit",
      "tle"
    ],
    [
      "man",
      ","
    ],
    [
      "What",
      ","
    ],
    [
      "S",
      "IC"
    ],
    [
      "SIC",
      "INIUS:"
    ],
    [
      "h",
      "our"
    ],
    [
      "f",
      "ar"
    ],
    [
      "di",
      "e"
    ],
    [
      "t",
      "ent"
    ],
    [
      "l",
      "p"
    ],
    [
      "a",
      "ce"
    ],
    [
      "'",
      "er"
    ],
    [
      "c",
      "tion"
    ],
    [
      "S",
      "ha"
    ],
    [
      "t",
      "re"
    ],
    [
      "h",
      ","
    ],
    [
      "de",
      "ar"
    ],
    [
      "p",
      "ur"
    ],
    [
      "U",
      "n"
    ],
    [
      "ke",
      "ep"
    ],
    [
      "N",
      "o,"
    ],
    [
      "te",
      "ar"
    ],
    [
      "ur",
      "der"
    ],
    [
      "ch",
      "ar"
    ],
    [
      "be",
      "st"
    ],
    [
      "t",
      "ain"
    ],
    [
      "st",
      "ill"
    ],
    [
      "la",
      "w"
    ],
    [
      "him",
      "self"
    ],
    [
      "ou",
      "d"
    ],
    [
      "No",
      "t"
    ],
    [
      "d",
      "en"
    ],
    [
      "r",
      "y,"
    ],
    [
      "ba",
      "ck"
    ],
    [
      "i",
      "o"
    ],
    [
      "f",
      "ull"
    ],
    [
      "Th",
      "y"
    ],
    [
      "LUC",
      "IO:"
    ],
    [
      "k",
      "es"
    ],
    [
      "un",
      "to"
    ],
    [
      "su",
      "b"
    ],
    [
      "g",
      "ar"
    ],
    [
      "T",
      "I"
    ],
    [
      "to",
      "-"
    ],
    [
      "Rich",
      "ard"
    ],
    [
      "IV",
      ":"
    ],
    [
      "t",
      "ed"
    ],
    [
      "H",
      "ave"
    ],
    [
      "e",
      "ch"
    ],
    [
      "es",
      "s,"
    ],
    [
      "than",
      "k"
    ],
    [
      "ro",
      "y"
    ],
    [
      "L",
      "O:"
    ],
    [
      "f",
      "irst"
    ],
    [
      "W",
      "ill"
    ],
    [
      "el",
      "se"
    ],
    [
      "t",
      "s"
    ],
    [
      "wi",
      "fe"
    ],
    [
      "c",
      "ould"
    ],
    [
      "hi",
      "gh"
    ],
    [
      "b",
      "es"
    ],
    [
      "ey",
      "es"
    ],
    [
      "so",
      ","
    ],
    [
      "is",
      "on"
    ],
    [
      "s",
      "or"
    ],
    [
      "Y",
      "or"
    ],
    [
      "du",
      "ke"
    ],
    [
      "ou",
      "ght"
    ],
    [
      "h",
      "us"
    ],
    [
      "con",
      "f"
    ],
    [
      "H",
      "en"
    ],
    [
      "t",
      "wo"
    ],
    [
      "in",
      ","
    ],
    [
      "c",
      "ut"
    ],
    [
      "H",
      ":"
    ],
    [
      "n",
      "at"
    ],
    [
      "d",
      "y"
    ],
    [
      "f",
      "ind"
    ],
    [
      "ing",
      "."
    ],
    [
      "come",
      ","
    ],
    [
      "you",
      "ng"
    ],
    [
      "EL",
      "I"
    ],
    [
      "ELI",
      "Z"
    ],
    [
      "ELIZ",
      "AB"
    ],
    [
      "ELIZAB",
      "ET"
    ],
    [
      "ELIZABET",
      "H:"
    ],
    [
      "at",
      "e,"
    ],
    [
      "c",
      "ha"
    ],
    [
      "h",
      "or"
    ],
    [
      "br",
      "ing"
    ],
    [
      "un",
      "e"
    ],
    [
      "G",
      "ood"
    ],
    [
      "o",
      "ple"
    ],
    [
      "j",
      "e"
    ],
    [
      "m",
      "in"
    ],
    [
      "j",
      "ust"
    ],
    [
      "m",
      "ind"
    ],
    [
      "g",
      "et"
    ],
    [
      "h",
      "ome"
    ],
    [
      "qu",
      "i"
    ],
    [
      "GR",
      "E"
    ],
    [
      "I",
      "AN"
    ],
    [
      "pe",
      "ople"
    ],
    [
      "it",
      "or"
    ],
    [
      "Y",
      "et"
    ],
    [
      "hus",
      "b"
    ],
    [
      "und",
      "er"
    ],
    [
      "see",
      "m"
    ],
    [
      "are",
      "well"
    ],
    [
      "I",
      ","
    ],
    [
      "as",
      "on"
    ],
    [
      "C",
      "L"
    ],
    [
      "en",
      "e"
    ],
    [
      "st",
      "e"
    ],
    [
      "com",
      "p"
    ],
    [
      "for",
      "th"
    ],
    [
      "af",
      "ter"
    ],
    [
      "ha",
      "pp"
    ],
    [
      "M",
      "ER"
    ],
    [
      "P",
      "ER"
    ],
    [
      "A",
      "ll"
    ],
    [
      "ne",
      "ed"
    ],
    [
      "in",
      "s"
    ],
    [
      "shi",
      "p"
    ],
    [
      "jo",
      "y"
    ],
    [
      "g",
      "i"
    ],
    [
      "f",
      "all"
    ],
    [
      "Now",
      ","
    ],
    [
      "W",
      "AR"
    ],
    [
      "WAR",
      "W"
    ],
    [
      "WARW",
      "IC"
    ],
    [
      "WARWIC",
      "K:"
    ],
    [
      "Citizen",
      ":"
    ],
    [
      "ma",
      "ster"
    ],
    [
      "is",
      "ter"
    ],
    [
      "fe",
      "llow"
    ],
    [
      "fa",
      "ce"
    ],
    [
      "fo",
      "llow"
    ],
    [
      "U",
      "T"
    ],
    [
      "y",
      ":"
    ],
    [
      "we",
      "l"
    ],
    [
      "b",
      "u"
    ],
    [
      "v",
      "ant"
    ],
    [
      "king",
      ","
    ],
    [
      "II",
      ":"
    ],
    [
      "re",
      "p"
    ],
    [
      "de",
      "ed"
    ],
    [
      "c",
      "ar"
    ],
    [
      "l",
      "ay"
    ],
    [
      "th",
      "ine"
    ],
    [
      "ard",
      "on"
    ],
    [
      "N",
      "urse"
    ],
    [
      "ple",
      "ase"
    ],
    [
      "ca",
      "me"
    ],
    [
      "HA",
      "M"
    ],
    [
      "HAM",
      ":"
    ],
    [
      "The",
      "y"
    ],
    [
      "hi",
      "ther"
    ],
    [
      "sa",
      "id"
    ],
    [
      "Sha",
      "ll"
    ],
    [
      "pr",
      "ince"
    ],
    [
      "mor",
      "row"
    ],
    [
      "CA",
      "P"
    ],
    [
      "CAP",
      "U"
    ],
    [
      "CAPU",
      "L"
    ],
    [
      "CAPUL",
      "ET:"
    ],
    [
      "ever",
      "y"
    ],
    [
      "g",
      "one"
    ],
    [
      "d",
      "ou"
    ],
    [
      "k",
      "ill"
    ],
    [
      "p",
      "at"
    ],
    [
      "We",
      "ll,"
    ],
    [
      "y",
      "ear"
    ],
    [
      "Rome",
      "o"
    ],
    [
      "c",
      "es"
    ],
    [
      "k",
      "en"
    ],
    [
      "ac",
      "c"
    ],
    [
      "he",
      "ard"
    ],
    [
      "p",
      "ower"
    ],
    [
      "am",
      ","
    ],
    [
      "BR",
      "UT"
    ],
    [
      "BRUT",
      "US:"
    ],
    [
      "te",
      "m"
    ],
    [
      "me",
      ";"
    ],
    [
      "ra",
      "w"
    ],
    [
      "B",
      "UC"
    ],
    [
      "BUC",
      "KING"
    ],
    [
      "BUCKING",
      "HAM:"
    ],
    [
      "ly",
      "."
    ],
    [
      "he",
      "lp"
    ],
    [
      "tong",
      "ue"
    ],
    [
      "th",
      "r"
    ],
    [
      "F",
      "rom"
    ],
    [
      "on",
      "ce"
    ],
    [
      "s",
      "it"
    ],
    [
      "i",
      "es"
    ],
    [
      "j",
      "est"
    ],
    [
      "c",
      "lo"
    ],
    [
      "g",
      "e,"
    ],
    [
      "B",
      "OL"
    ],
    [
      "BOL",
      "ING"
    ],
    [
      "BOLING",
      "B"
    ],
    [
      "BOLINGB",
      "RO"
    ],
    [
      "BOLINGBRO",
      "K"
    ],
    [
      "BOLINGBROK",
      "E:"
    ],
    [
      "T",
      "RAN"
    ],
    [
      "TRAN",
      "IO:"
    ],
    [
      "b",
      "us"
    ],
    [
      "who",
      "se"
    ],
    [
      "mar",
      "ri"
    ],
    [
      "pres",
      "ent"
    ],
    [
      "st",
      ":"
    ],
    [
      "en",
      "ce,"
    ],
    [
      "w",
      "it"
    ],
    [
      "Nurse",
      ":"
    ],
    [
      "O",
      "ur"
    ],
    [
      "b",
      "ri"
    ],
    [
      "pe",
      "ace"
    ],
    [
      "m",
      "on"
    ],
    [
      "ho",
      "pe"
    ],
    [
      "ma",
      "id"
    ],
    [
      "roy",
      "al"
    ],
    [
      "coun",
      "t"
    ],
    [
      "in",
      "ess"
    ],
    [
      "s",
      "en"
    ],
    [
      "la",
      "ck"
    ],
    [
      "at",
      "or"
    ],
    [
      "c",
      "ent"
    ],
    [
      "hen",
      "ce"
    ],
    [
      "wr",
      "ong"
    ],
    [
      "K",
      "ing"
    ],
    [
      "c",
      "ur"
    ],
    [
      "s",
      "un"
    ],
    [
      "O",
      "n"
    ],
    [
      "me",
      "et"
    ],
    [
      "f",
      "al"
    ],
    [
      "Wh",
      "y"
    ],
    [
      "sor",
      "row"
    ],
    [
      "MAR",
      "G"
    ],
    [
      "MARG",
      "AR"
    ],
    [
      "MARGAR",
      "ET:"
    ],
    [
      "ES",
      "S"
    ],
    [
      "g",
      "ain"
    ],
    [
      "s",
      "and"
    ],
    [
      "an",
      "sw"
    ],
    [
      "g",
      "en"
    ],
    [
      "m",
      ","
    ],
    [
      "daught",
      "er"
    ],
    [
      "MI",
      "L"
    ],
    [
      "A",
      "TH"
    ],
    [
      "go",
      "d"
    ],
    [
      "v",
      "ir"
    ],
    [
      "s",
      "ay,"
    ],
    [
      "n",
      "one"
    ],
    [
      "husb",
      "and"
    ],
    [
      "p",
      "ardon"
    ],
    [
      "then",
      ","
    ],
    [
      "ing",
      "s"
    ],
    [
      "p",
      "i"
    ],
    [
      "is",
      ","
    ],
    [
      "st",
      "ru"
    ],
    [
      "ab",
      "out"
    ],
    [
      "re",
      "me"
    ],
    [
      "ar",
      "k"
    ],
    [
      "B",
      "o"
    ],
    [
      "v",
      "ere"
    ],
    [
      "c",
      "ous"
    ],
    [
      "Cl",
      "ar"
    ],
    [
      "for",
      "d"
    ],
    [
      "AN",
      "G"
    ],
    [
      "ANG",
      "EL"
    ],
    [
      "ANGEL",
      "O:"
    ],
    [
      "H",
      "OR"
    ],
    [
      "r",
      "un"
    ],
    [
      "v",
      "il"
    ],
    [
      "en",
      "g"
    ],
    [
      "foo",
      "l"
    ],
    [
      "we",
      "ep"
    ],
    [
      "S",
      "t"
    ],
    [
      "Yor",
      "k"
    ],
    [
      "E",
      "ng"
    ],
    [
      "EL",
      ":"
    ],
    [
      "C",
      "U"
    ],
    [
      "AR",
      "INA:"
    ],
    [
      "Mar",
      "ci"
    ],
    [
      "ce",
      "ive"
    ],
    [
      "we",
      "ar"
    ],
    [
      "gra",
      "cious"
    ],
    [
      "Hen",
      "ry"
    ],
    [
      "K",
      "ATH"
    ],
    [
      "KATH",
      "ARINA:"
    ],
    [
      "pla",
      "ce"
    ],
    [
      "o",
      "ver"
    ],
    [
      "y",
      ";"
    ],
    [
      "la",
      "st"
    ],
    [
      "in",
      "to"
    ],
    [
      "f",
      "f"
    ],
    [
      "thou",
      "sand"
    ],
    [
      "p",
      "et"
    ],
    [
      "m",
      "ber"
    ],
    [
      "st",
      "ri"
    ],
    [
      "swe",
      "ar"
    ],
    [
      "as",
      "ure"
    ],
    [
      "love",
      ","
    ],
    [
      "D",
      "u"
    ],
    [
      "s",
      "ince"
    ],
    [
      "er",
      "'d"
    ],
    [
      "U",
      "p"
    ],
    [
      "t",
      "urn"
    ],
    [
      "sp",
      "ir"
    ],
    [
      "x",
      "t"
    ],
    [
      "there",
      "fore"
    ],
    [
      "gri",
      "ef"
    ],
    [
      "ES",
      "CA"
    ],
    [
      "ESCA",
      "L"
    ],
    [
      "ESCAL",
      "US:"
    ],
    [
      "je",
      "ct"
    ],
    [
      "con",
      "tent"
    ],
    [
      "Sir",
      ","
    ],
    [
      "u",
      "d"
    ],
    [
      "p",
      "s"
    ],
    [
      "e",
      "ld"
    ],
    [
      "who",
      "m"
    ],
    [
      "lord",
      "."
    ],
    [
      "P",
      "r"
    ],
    [
      "H",
      "er"
    ],
    [
      "st",
      "r"
    ],
    [
      "es",
      ";"
    ],
    [
      "bro",
      "ke"
    ],
    [
      "d",
      "ow"
    ],
    [
      "pro",
      "ve"
    ],
    [
      "death",
      ","
    ],
    [
      "H",
      "ath"
    ],
    [
      "s",
      "l"
    ],
    [
      "AN",
      "D:"
    ],
    [
      "c",
      "ra"
    ],
    [
      "t",
      "ing"
    ],
    [
      "ma",
      "kes"
    ],
    [
      "be",
      "d"
    ],
    [
      "g",
      "re"
    ],
    [
      "ear",
      "th"
    ],
    [
      "v",
      "ill"
    ],
    [
      "Du",
      "ke"
    ],
    [
      "D",
      "UCH"
    ],
    [
      "men",
      ","
    ],
    [
      "p",
      "ass"
    ],
    [
      "v",
      "y"
    ],
    [
      "r",
      "ant"
    ],
    [
      "se",
      ","
    ],
    [
      "p",
      "her"
    ],
    [
      "son",
      ","
    ],
    [
      "sle",
      "ep"
    ],
    [
      "g",
      "l"
    ],
    [
      "Pro",
      "vo"
    ],
    [
      "RO",
      "S"
    ],
    [
      "An",
      "ge"
    ],
    [
      "whi",
      "le"
    ],
    [
      "fa",
      "ul"
    ],
    [
      "k",
      "ne"
    ],
    [
      "v",
      "is"
    ],
    [
      "s",
      "ound"
    ],
    [
      "d",
      "re"
    ],
    [
      "an",
      "ca"
    ],
    [
      "father",
      ","
    ],
    [
      "Ange",
      "lo"
    ],
    [
      "lie",
      "ve"
    ],
    [
      "gra",
      "ve"
    ],
    [
      "an",
      "ge"
    ],
    [
      "an",
      "other"
    ],
    [
      "e",
      "ech"
    ],
    [
      "dou",
      "b"
    ],
    [
      "I",
      "A:"
    ],
    [
      "pr",
      "ison"
    ],
    [
      "w",
      "a"
    ],
    [
      "tra",
      "itor"
    ],
    [
      "do",
      "st"
    ],
    [
      "V",
      "I:"
    ],
    [
      "CA",
      "MIL"
    ],
    [
      "CAMIL",
      "LO:"
    ],
    [
      "W",
      "ould"
    ],
    [
      "e",
      "ven"
    ],
    [
      "m",
      "atter"
    ],
    [
      "E",
      "ven"
    ],
    [
      "s",
      "word"
    ],
    [
      "for",
      "m"
    ],
    [
      "su",
      "re"
    ],
    [
      "pat",
      "i"
    ],
    [
      "c",
      "le"
    ],
    [
      "b",
      "al"
    ],
    [
      "wi",
      "lt"
    ],
    [
      "DUCH",
      "ESS"
    ],
    [
      "R",
      "I"
    ],
    [
      "c",
      "or"
    ],
    [
      "f",
      "ight"
    ],
    [
      "z",
      "e"
    ],
    [
      "ar",
      "n"
    ],
    [
      "ain",
      "t"
    ],
    [
      "vere",
      "ign"
    ],
    [
      "t",
      "w"
    ],
    [
      "lif",
      "e,"
    ],
    [
      "HOR",
      "T"
    ],
    [
      "HORT",
      "EN"
    ],
    [
      "HORTEN",
      "S"
    ],
    [
      "v",
      "ent"
    ],
    [
      "ha",
      "s"
    ],
    [
      "us",
      "."
    ],
    [
      "But",
      ","
    ],
    [
      "of",
      "fi"
    ],
    [
      "ou",
      "ch"
    ],
    [
      "Up",
      "on"
    ],
    [
      "lad",
      "y"
    ],
    [
      "father",
      "'s"
    ],
    [
      "d",
      "raw"
    ],
    [
      "d",
      ":"
    ],
    [
      "so",
      "vereign"
    ],
    [
      "se",
      "d"
    ],
    [
      "ish",
      "'d"
    ],
    [
      "thou",
      ","
    ],
    [
      "F",
      "RI"
    ],
    [
      "FRI",
      "AR"
    ],
    [
      "HORTENS",
      "IO:"
    ],
    [
      "ra",
      "ther"
    ],
    [
      "vir",
      "t"
    ],
    [
      "s",
      "end"
    ],
    [
      "ion",
      ","
    ],
    [
      "i",
      "'"
    ],
    [
      "v",
      "a"
    ],
    [
      "me",
      ":"
    ],
    [
      "pl",
      "ay"
    ],
    [
      "A",
      "re"
    ],
    [
      "fort",
      "une"
    ],
    [
      "T",
      "hi"
    ],
    [
      "own",
      ":"
    ],
    [
      "tal",
      "k"
    ],
    [
      "T",
      "y"
    ],
    [
      "BA",
      "P"
    ],
    [
      "BAP",
      "TI"
    ],
    [
      "BAPTI",
      "ST"
    ],
    [
      "BAPTIST",
      "A:"
    ],
    [
      "re",
      "ven"
    ],
    [
      "m",
      "b"
    ],
    [
      "s",
      "la"
    ],
    [
      "C",
      "OM"
    ],
    [
      "COM",
      "INIUS:"
    ],
    [
      "g",
      "ed"
    ],
    [
      "i",
      "re"
    ],
    [
      "c",
      "ess"
    ],
    [
      "fal",
      "se"
    ],
    [
      "EDWARD",
      ":"
    ],
    [
      "AU",
      "T"
    ],
    [
      "AUT",
      "OL"
    ],
    [
      "AUTOL",
      "Y"
    ],
    [
      "AUTOLY",
      "C"
    ],
    [
      "AUTOLYC",
      "US:"
    ],
    [
      "it",
      "s"
    ],
    [
      "it",
      "y,"
    ],
    [
      "sel",
      "ves"
    ],
    [
      "w",
      "ant"
    ],
    [
      "des",
      "er"
    ],
    [
      "h",
      "ang"
    ],
    [
      "A",
      "t"
    ],
    [
      ",",
      "--"
    ],
    [
      "M",
      "ore"
    ],
    [
      "w",
      "om"
    ],
    [
      "s",
      "po"
    ],
    [
      "re",
      "ason"
    ],
    [
      "sir",
      "."
    ],
    [
      "Thi",
      "r"
    ],
    [
      "o'",
      "er"
    ],
    [
      "com",
      "fort"
    ],
    [
      "wo",
      "man"
    ],
    [
      "M",
      "urder"
    ],
    [
      "CL",
      "AR"
    ],
    [
      "CLAR",
      "ENCE:"
    ],
    [
      "E",
      "Y:"
    ],
    [
      "ie",
      "ld"
    ],
    [
      "h",
      "one"
    ],
    [
      "bre",
      "ath"
    ],
    [
      "me",
      "d"
    ],
    [
      "st",
      "ran"
    ],
    [
      "w",
      "n"
    ],
    [
      "w",
      "ind"
    ],
    [
      "Thir",
      "d"
    ],
    [
      "l",
      ","
    ],
    [
      "sha",
      "lt"
    ],
    [
      "tr",
      "ess"
    ],
    [
      "happ",
      "y"
    ],
    [
      "Provo",
      "st:"
    ],
    [
      "comm",
      "on"
    ],
    [
      "p",
      "rom"
    ],
    [
      "T",
      "ake"
    ],
    [
      "c",
      "er"
    ],
    [
      "G",
      "entle"
    ],
    [
      "e",
      "ll"
    ],
    [
      "ck",
      ","
    ],
    [
      "li",
      "es"
    ],
    [
      "fe",
      "ct"
    ],
    [
      "thee",
      "."
    ],
    [
      "la",
      "u"
    ],
    [
      "is",
      "s"
    ],
    [
      "ho",
      "ly"
    ],
    [
      "a",
      "ut"
    ],
    [
      "vant",
      ":"
    ],
    [
      "N",
      "OR"
    ],
    [
      "B",
      "EN"
    ],
    [
      "BEN",
      "VOL"
    ],
    [
      "BENVOL",
      "IO:"
    ],
    [
      "Cl",
      "own:"
    ],
    [
      "l",
      "es"
    ],
    [
      "en",
      "ough"
    ],
    [
      "i",
      "gh"
    ],
    [
      "so",
      "ld"
    ],
    [
      "S",
      "h"
    ],
    [
      "s",
      "in"
    ],
    [
      "mer",
      "c"
    ],
    [
      "st",
      "ate"
    ],
    [
      "GR",
      "UM"
    ],
    [
      "GRUM",
      "IO:"
    ],
    [
      "P",
      "ROS"
    ],
    [
      "PROS",
      "PER"
    ],
    [
      "PROSPER",
      "O:"
    ],
    [
      "vi",
      "ce"
    ],
    [
      "on",
      "ly"
    ],
    [
      "hat",
      "e"
    ],
    [
      "t",
      "."
    ],
    [
      "ct",
      "or"
    ],
    [
      "at",
      "es"
    ],
    [
      "a",
      "ir"
    ],
    [
      "for",
      "e,"
    ],
    [
      "ey",
      "e"
    ],
    [
      "h",
      "um"
    ],
    [
      "b",
      "ur"
    ],
    [
      "st",
      "ra"
    ],
    [
      "here",
      ","
    ],
    [
      "pe",
      "ct"
    ],
    [
      "vill",
      "ain"
    ],
    [
      "Murder",
      "er:"
    ],
    [
      "MER",
      "CU"
    ],
    [
      "MERCU",
      "TIO:"
    ],
    [
      "ci",
      "an"
    ],
    [
      "er",
      "y"
    ],
    [
      "nat",
      "ure"
    ],
    [
      "c",
      "are"
    ],
    [
      "bo",
      "dy"
    ],
    [
      "L",
      "i"
    ],
    [
      "all",
      ","
    ],
    [
      "that",
      ","
    ],
    [
      "an",
      "ta"
    ],
    [
      "W",
      "ere"
    ],
    [
      "th",
      "ree"
    ],
    [
      "wor",
      "n"
    ],
    [
      "b",
      "orn"
    ],
    [
      "c",
      "ri"
    ],
    [
      "J",
      "u"
    ],
    [
      "her",
      ","
    ],
    [
      "dre",
      "am"
    ],
    [
      "LUC",
      "ENTIO:"
    ],
    [
      "answ",
      "er"
    ],
    [
      "ho",
      "p"
    ],
    [
      "po",
      "int"
    ],
    [
      "y",
      "e"
    ],
    [
      "as",
      "k"
    ],
    [
      "qu",
      "est"
    ],
    [
      "s",
      "ister"
    ],
    [
      "be",
      "aut"
    ],
    [
      "L",
      "AND:"
    ],
    [
      "Ser",
      "vant:"
    ],
    [
      "P",
      "OM"
    ],
    [
      "POM",
      "P"
    ],
    [
      "f",
      "ur"
    ],
    [
      "w",
      "ay,"
    ],
    [
      "y",
      "ield"
    ],
    [
      "C",
      "on"
    ],
    [
      "count",
      "ry"
    ],
    [
      "R",
      "o"
    ],
    [
      "sir",
      ";"
    ],
    [
      "w",
      "in"
    ],
    [
      "fi",
      "re"
    ],
    [
      "bes",
      "eech"
    ],
    [
      "w",
      "ish"
    ],
    [
      "W",
      "as"
    ],
    [
      "d",
      "ang"
    ],
    [
      "n",
      "ing"
    ],
    [
      "p",
      "h"
    ],
    [
      "sa",
      "w"
    ],
    [
      "G",
      "ive"
    ],
    [
      "o",
      "st"
    ],
    [
      "A",
      "l"
    ],
    [
      "sub",
      "ject"
    ],
    [
      "b",
      "it"
    ],
    [
      "o",
      "ath"
    ],
    [
      "f",
      "oul"
    ],
    [
      "P",
      "AU"
    ],
    [
      "PAU",
      "L"
    ],
    [
      "PAUL",
      "INA:"
    ],
    [
      "gain",
      "st"
    ],
    [
      "de",
      "li"
    ],
    [
      "al",
      ","
    ],
    [
      "word",
      "s"
    ],
    [
      "ge",
      "ther"
    ],
    [
      "ap",
      "pe"
    ],
    [
      "that",
      "'s"
    ],
    [
      "fa",
      "ith"
    ],
    [
      "se",
      "en"
    ],
    [
      "ar",
      ","
    ],
    [
      "for",
      "ce"
    ],
    [
      "me",
      "?"
    ],
    [
      "w",
      "ound"
    ],
    [
      "gentle",
      "man"
    ],
    [
      "POMP",
      "EY:"
    ],
    [
      "GRE",
      "M"
    ],
    [
      "GREM",
      "IO:"
    ],
    [
      "'t",
      "."
    ],
    [
      "sold",
      "i"
    ],
    [
      "s",
      "m"
    ],
    [
      "gen",
      "er"
    ],
    [
      "i",
      "or"
    ],
    [
      "well",
      ","
    ],
    [
      "w",
      "is"
    ],
    [
      "G",
      "o,"
    ],
    [
      "VOL",
      "UM"
    ],
    [
      "VOLUM",
      "N"
    ],
    [
      "VOLUMN",
      "IA:"
    ],
    [
      "your",
      "self"
    ],
    [
      "f",
      "ree"
    ],
    [
      "hor",
      "se"
    ],
    [
      "L",
      "ook"
    ],
    [
      "'d",
      "."
    ],
    [
      "or",
      "i"
    ],
    [
      "g",
      "ro"
    ],
    [
      "c",
      "la"
    ],
    [
      "Eng",
      "land"
    ],
    [
      "P",
      "OL"
    ],
    [
      "POL",
      "I"
    ],
    [
      "POLI",
      "X"
    ],
    [
      "POLIX",
      "EN"
    ],
    [
      "POLIXEN",
      "ES:"
    ],
    [
      "wh",
      "y"
    ],
    [
      "them",
      ","
    ],
    [
      "er",
      "s,"
    ],
    [
      "bre",
      "ak"
    ],
    [
      "ha",
      "l"
    ],
    [
      "not",
      "."
    ],
    [
      "S",
      "ome"
    ],
    [
      "him",
      ";"
    ],
    [
      "go",
      "t"
    ],
    [
      "be",
      "at"
    ],
    [
      "so",
      "."
    ],
    [
      "ent",
      ","
    ],
    [
      "Ser",
      "ving"
    ],
    [
      "Serving",
      "man:"
    ],
    [
      "HA",
      "ST"
    ],
    [
      "HAST",
      "ING"
    ],
    [
      "HASTING",
      "S:"
    ],
    [
      "pr",
      "in"
    ],
    [
      "B",
      "ER"
    ],
    [
      "G",
      "ON"
    ],
    [
      "b",
      "at"
    ],
    [
      "D",
      "id"
    ],
    [
      "c",
      "re"
    ],
    [
      "v",
      "es,"
    ],
    [
      "to",
      "gether"
    ],
    [
      "un",
      "t"
    ],
    [
      "s",
      "ing"
    ],
    [
      "child",
      "ren"
    ],
    [
      "be",
      "lieve"
    ],
    [
      "de",
      "m"
    ],
    [
      "p",
      "ain"
    ],
    [
      "li",
      "ves"
    ],
    [
      "let",
      "'s"
    ],
    [
      "C",
      "an"
    ],
    [
      "et",
      ","
    ],
    [
      "H",
      "ast"
    ],
    [
      "ma",
      "jest"
    ],
    [
      "L",
      "u"
    ],
    [
      "T",
      ":"
    ],
    [
      "Ty",
      "bal"
    ],
    [
      "L",
      "AU"
    ],
    [
      "LAU",
      "R"
    ],
    [
      "LAUR",
      "ENCE:"
    ],
    [
      "he",
      "'s"
    ],
    [
      "b",
      "our"
    ],
    [
      "this",
      ","
    ],
    [
      "to",
      "ld"
    ],
    [
      "comm",
      "and"
    ],
    [
      "g",
      "a"
    ],
    [
      "war",
      "rant"
    ],
    [
      "sa",
      "ve"
    ],
    [
      "you",
      ";"
    ],
    [
      "M",
      "ay"
    ],
    [
      "l",
      "am"
    ],
    [
      "s",
      "ight"
    ],
    [
      "w",
      "at"
    ],
    [
      "Clar",
      "ence"
    ],
    [
      "B",
      "Y:"
    ],
    [
      "Ju",
      "li"
    ],
    [
      "P",
      "et"
    ],
    [
      "i",
      "us"
    ],
    [
      "pr",
      "oud"
    ],
    [
      "of",
      "t"
    ],
    [
      "bus",
      "iness"
    ],
    [
      "ne",
      "'er"
    ],
    [
      "pl",
      "ain"
    ],
    [
      "ch",
      "ange"
    ],
    [
      "him",
      ":"
    ],
    [
      "friend",
      "s"
    ],
    [
      "f",
      "arewell"
    ],
    [
      "with",
      "in"
    ],
    [
      "be",
      ","
    ],
    [
      "lord",
      "s,"
    ],
    [
      "cous",
      "in"
    ],
    [
      "C",
      "LI"
    ],
    [
      "CLI",
      "F"
    ],
    [
      "CLIF",
      "F"
    ],
    [
      "NOR",
      "TH"
    ],
    [
      "NORTH",
      "UM"
    ],
    [
      "NORTHUM",
      "BER"
    ],
    [
      "NORTHUMBER",
      "LAND:"
    ],
    [
      "r",
      "is"
    ],
    [
      "hone",
      "st"
    ],
    [
      "know",
      "n"
    ],
    [
      "Thou",
      "gh"
    ],
    [
      "tru",
      "st"
    ],
    [
      "wor",
      "thy"
    ],
    [
      "hal",
      "f"
    ],
    [
      "de",
      "st"
    ],
    [
      "I",
      "D"
    ],
    [
      "ret",
      "urn"
    ],
    [
      "V",
      "I"
    ],
    [
      "blood",
      "y"
    ],
    [
      "wel",
      "come"
    ],
    [
      "you",
      "?"
    ],
    [
      "sha",
      "me"
    ],
    [
      "s",
      "ad"
    ],
    [
      "go",
      "ld"
    ],
    [
      "c",
      "old"
    ],
    [
      "d",
      "ay,"
    ],
    [
      "ran",
      "ce"
    ],
    [
      "for",
      "d,"
    ],
    [
      "Marci",
      "us"
    ],
    [
      "w",
      "ond"
    ],
    [
      "pur",
      "pose"
    ],
    [
      "y",
      "?"
    ],
    [
      "thr",
      "ough"
    ],
    [
      "v",
      "our"
    ],
    [
      "ator",
      ":"
    ],
    [
      "C",
      "om"
    ],
    [
      "s",
      "'"
    ],
    [
      "h",
      "ard"
    ],
    [
      "tru",
      "th"
    ],
    [
      "gu",
      "e"
    ],
    [
      "de",
      ","
    ],
    [
      "g",
      "row"
    ],
    [
      "with",
      "out"
    ],
    [
      "le",
      "ft"
    ],
    [
      "n",
      "urse"
    ],
    [
      "k",
      "iss"
    ],
    [
      "AN",
      "N"
    ],
    [
      "ANN",
      "E:"
    ],
    [
      "M",
      "on"
    ],
    [
      "rep",
      "ort"
    ],
    [
      "ve",
      ","
    ],
    [
      "mar",
      "k"
    ],
    [
      "L",
      "e"
    ],
    [
      "new",
      "s"
    ],
    [
      "H",
      "ad"
    ],
    [
      "tend",
      "er"
    ],
    [
      "pl",
      "uck"
    ],
    [
      "W",
      "hi"
    ],
    [
      "a",
      "the"
    ],
    [
      "es",
      ":"
    ],
    [
      "time",
      "s"
    ],
    [
      "re",
      "l"
    ],
    [
      "le",
      "arn"
    ],
    [
      "f",
      "e,"
    ],
    [
      "he",
      "ir"
    ],
    [
      "C",
      "lif"
    ],
    [
      "P",
      "R"
    ],
    [
      "PR",
      "INC"
    ],
    [
      "S",
      "ign"
    ],
    [
      "ON",
      "E:"
    ],
    [
      "IAN",
      ":"
    ],
    [
      "con",
      "s"
    ],
    [
      "c",
      "urse"
    ],
    [
      "f",
      "it"
    ],
    [
      "f",
      "ound"
    ],
    [
      "G",
      "re"
    ],
    [
      "T",
      "ell"
    ],
    [
      "o",
      "be"
    ],
    [
      "death",
      "."
    ],
    [
      "us",
      "h"
    ],
    [
      "e",
      "'er"
    ],
    [
      "p",
      "ast"
    ],
    [
      "cour",
      "t"
    ],
    [
      "thy",
      "self"
    ],
    [
      "is",
      "ed"
    ],
    [
      "mis",
      "tress"
    ],
    [
      "Edward",
      "'s"
    ],
    [
      "p",
      "en"
    ],
    [
      "st",
      "er,"
    ],
    [
      "A",
      "h,"
    ],
    [
      "to-",
      "morrow"
    ],
    [
      "OR",
      "D:"
    ],
    [
      "B",
      "ol"
    ],
    [
      "Bol",
      "ing"
    ],
    [
      "Boling",
      "broke"
    ],
    [
      "Sign",
      "ior"
    ],
    [
      "str",
      "ong"
    ],
    [
      "R",
      "e"
    ],
    [
      "Sh",
      "ould"
    ],
    [
      "well",
      "."
    ],
    [
      "t",
      "ro"
    ],
    [
      "l",
      "ate"
    ],
    [
      "on",
      "."
    ],
    [
      "mor",
      "e,"
    ],
    [
      "s",
      "worn"
    ],
    [
      "F",
      "arewell"
    ],
    [
      "per",
      "son"
    ],
    [
      "b",
      "ow"
    ],
    [
      "f",
      "et"
    ],
    [
      "s",
      "il"
    ],
    [
      "p",
      "ity"
    ],
    [
      "pa",
      "ir"
    ],
    [
      "gr",
      "ound"
    ],
    [
      "se",
      "a"
    ],
    [
      "Who",
      "se"
    ],
    [
      "m",
      "urder"
    ],
    [
      "C",
      "am"
    ],
    [
      "C",
      "a"
    ],
    [
      "faul",
      "t"
    ],
    [
      "it",
      "ion"
    ],
    [
      "up",
      ","
    ],
    [
      "in",
      "stru"
    ],
    [
      "thing",
      "s"
    ],
    [
      "bo",
      "ld"
    ],
    [
      "you",
      ":"
    ],
    [
      "ent",
      "reat"
    ],
    [
      "dang",
      "er"
    ],
    [
      "M",
      "e"
    ],
    [
      "bl",
      "ow"
    ],
    [
      "de",
      "ep"
    ],
    [
      "w",
      "oo"
    ],
    [
      "d",
      "ut"
    ],
    [
      "de",
      "vil"
    ],
    [
      "ent",
      "y"
    ],
    [
      "e",
      "k"
    ],
    [
      "cla",
      "im"
    ],
    [
      "lo",
      "st"
    ],
    [
      "l",
      "ou"
    ],
    [
      "king",
      "."
    ],
    [
      "Warwick",
      ","
    ],
    [
      "Mon",
      "ta"
    ],
    [
      "cent",
      "io"
    ],
    [
      "we",
      "'ll"
    ],
    [
      "O",
      "ne"
    ],
    [
      "Li",
      "ke"
    ],
    [
      "he",
      ","
    ],
    [
      "qu",
      "ar"
    ],
    [
      "stran",
      "ge"
    ],
    [
      "de",
      "f"
    ],
    [
      "do",
      "m"
    ],
    [
      "S",
      "en"
    ],
    [
      "li",
      "p"
    ],
    [
      "S",
      "u"
    ],
    [
      "let",
      "ter"
    ],
    [
      "doub",
      "t"
    ],
    [
      "do",
      "es"
    ],
    [
      "a",
      "ther"
    ],
    [
      "again",
      "."
    ],
    [
      "d",
      "are"
    ],
    [
      "to",
      "ward"
    ],
    [
      "en",
      "ch"
    ],
    [
      "bl",
      "es"
    ],
    [
      "M",
      "ast"
    ],
    [
      "stra",
      "ight"
    ],
    [
      "so",
      "on"
    ],
    [
      "ent",
      "er"
    ],
    [
      "hand",
      "s"
    ],
    [
      "hea",
      "vy"
    ],
    [
      "sl",
      "ain"
    ],
    [
      "P",
      "o"
    ],
    [
      "ag",
      "e,"
    ],
    [
      "ene",
      "my"
    ],
    [
      "o",
      "b"
    ],
    [
      "c",
      "ity"
    ],
    [
      "friend",
      "s,"
    ],
    [
      "it",
      ":"
    ],
    [
      "e",
      "ach"
    ],
    [
      "no",
      ","
    ],
    [
      "c",
      "ry"
    ],
    [
      "M",
      "ess"
    ],
    [
      "Mess",
      "eng"
    ],
    [
      "Messeng",
      "er:"
    ],
    [
      "mo",
      "ve"
    ],
    [
      "AU",
      "F"
    ],
    [
      "AUF",
      "ID"
    ],
    [
      "AUFID",
      "IUS:"
    ],
    [
      "is",
      "t"
    ],
    [
      "su",
      "e"
    ],
    [
      "ch",
      "oo"
    ],
    [
      "op",
      "en"
    ],
    [
      "wor",
      "th"
    ],
    [
      "coun",
      "ter"
    ],
    [
      "t",
      "ouch"
    ],
    [
      "e",
      "cut"
    ],
    [
      "J",
      "o"
    ],
    [
      "su",
      "p"
    ],
    [
      "will",
      ","
    ],
    [
      "brother",
      ","
    ],
    [
      "Lord",
      ":"
    ],
    [
      "f",
      "ol"
    ],
    [
      "Go",
      "d,"
    ],
    [
      "F",
      "L"
    ],
    [
      "FL",
      "ORI"
    ],
    [
      "FLORI",
      "Z"
    ],
    [
      "FLORIZ",
      "EL:"
    ],
    [
      "l",
      "ing"
    ],
    [
      "gr",
      "ant"
    ],
    [
      "mean",
      "s"
    ],
    [
      "mo",
      "ck"
    ],
    [
      "br",
      "ought"
    ],
    [
      "pr",
      "ess"
    ],
    [
      "The",
      "se"
    ],
    [
      "pr",
      "of"
    ],
    [
      "think",
      "s"
    ],
    [
      "h",
      "arm"
    ],
    [
      "all",
      "."
    ],
    [
      "c",
      "ro"
    ],
    [
      "wi",
      "dow"
    ],
    [
      "ex",
      "ecut"
    ],
    [
      "a",
      "ce,"
    ],
    [
      "b",
      "ir"
    ],
    [
      "hand",
      ","
    ],
    [
      "wo",
      "e"
    ],
    [
      "L",
      "E:"
    ],
    [
      "T",
      "ON"
    ],
    [
      "AR",
      "I"
    ],
    [
      "I",
      "ON"
    ],
    [
      "C",
      "lau"
    ],
    [
      "Clau",
      "di"
    ],
    [
      "ce",
      "ed"
    ],
    [
      "a",
      "u"
    ],
    [
      "b",
      "ar"
    ],
    [
      "c",
      "al"
    ],
    [
      "is",
      "he"
    ],
    [
      "ri",
      "ch"
    ],
    [
      "fe",
      "el"
    ],
    [
      "at",
      ","
    ],
    [
      "re",
      "w"
    ],
    [
      "Sen",
      "ator:"
    ],
    [
      "M",
      "ad"
    ],
    [
      "char",
      "ge"
    ],
    [
      "tear",
      "s"
    ],
    [
      "it",
      "self"
    ],
    [
      "con",
      "su"
    ],
    [
      "j",
      "ud"
    ],
    [
      "her",
      "."
    ],
    [
      "ne",
      "ar"
    ],
    [
      "ban",
      "ish"
    ],
    [
      "as",
      ","
    ],
    [
      "Gentle",
      "man:"
    ],
    [
      "God",
      "'s"
    ],
    [
      "S",
      "E"
    ],
    [
      "res",
      "ol"
    ],
    [
      "A",
      "gainst"
    ],
    [
      "C",
      "ap"
    ],
    [
      "deli",
      "ver"
    ],
    [
      "I",
      "'"
    ],
    [
      "MAR",
      "C"
    ],
    [
      "le",
      "ad"
    ],
    [
      "st",
      "or"
    ],
    [
      "ch",
      "o"
    ],
    [
      "what",
      "'s"
    ],
    [
      "fi",
      "eld"
    ],
    [
      "b",
      "ound"
    ],
    [
      "lo",
      "se"
    ],
    [
      "st",
      "ren"
    ],
    [
      "stren",
      "g"
    ],
    [
      "po",
      "s"
    ],
    [
      "ad",
      "v"
    ],
    [
      "D",
      "e"
    ],
    [
      "ple",
      "asure"
    ],
    [
      "d",
      "r"
    ],
    [
      "them",
      "."
    ],
    [
      "tw",
      "enty"
    ],
    [
      "it",
      "?"
    ],
    [
      "des",
      "ire"
    ],
    [
      "foo",
      "t"
    ],
    [
      "sa",
      "ke"
    ],
    [
      "d",
      "."
    ],
    [
      "ap",
      "t"
    ],
    [
      "wom",
      "en"
    ],
    [
      "y",
      "!"
    ],
    [
      "G",
      "lou"
    ],
    [
      "Glou",
      "ce"
    ],
    [
      "RICHARD",
      ":"
    ],
    [
      "She",
      "pher"
    ],
    [
      "SE",
      "BA"
    ],
    [
      "SEBA",
      "ST"
    ],
    [
      "SEBAST",
      "IAN:"
    ],
    [
      "t",
      "it"
    ],
    [
      "it",
      ";"
    ],
    [
      "fe",
      "ction"
    ],
    [
      "blood",
      ","
    ],
    [
      "coun",
      "sel"
    ],
    [
      "w",
      "ise"
    ],
    [
      "MARC",
      "IUS:"
    ],
    [
      "What",
      "'s"
    ],
    [
      "ed",
      ";"
    ],
    [
      "it",
      "y."
    ],
    [
      "v",
      "al"
    ],
    [
      "be",
      "hold"
    ],
    [
      "il",
      "t"
    ],
    [
      "qui",
      "ck"
    ],
    [
      "an",
      "ce,"
    ],
    [
      "b",
      "urn"
    ],
    [
      "sa",
      "me"
    ],
    [
      "virt",
      "u"
    ],
    [
      "e",
      "ither"
    ],
    [
      "lord",
      ";"
    ],
    [
      "fear",
      "ful"
    ],
    [
      "wi",
      "fe,"
    ],
    [
      "year",
      "s"
    ],
    [
      "m",
      "us"
    ],
    [
      "ing",
      "ha"
    ],
    [
      "O",
      "W"
    ],
    [
      "Cam",
      "ill"
    ],
    [
      "Shepher",
      "d:"
    ],
    [
      "s",
      "ur"
    ],
    [
      "god",
      "s"
    ],
    [
      "ma",
      "in"
    ],
    [
      "gener",
      "al"
    ],
    [
      "f",
      "er"
    ],
    [
      "this",
      "?"
    ],
    [
      "le",
      "."
    ],
    [
      "V",
      "ol"
    ],
    [
      "stri",
      "ke"
    ],
    [
      "su",
      "c"
    ],
    [
      "T",
      "ill"
    ],
    [
      "see",
      "k"
    ],
    [
      "che",
      "d"
    ],
    [
      "d",
      "one,"
    ],
    [
      "d",
      "ro"
    ],
    [
      "v",
      "ow"
    ],
    [
      "reme",
      "mber"
    ],
    [
      "w",
      "ret"
    ],
    [
      "ti",
      "me,"
    ],
    [
      "d",
      "am"
    ],
    [
      "wh",
      "y,"
    ],
    [
      "lo",
      "ving"
    ],
    [
      "d",
      "ish"
    ],
    [
      "bo",
      "so"
    ],
    [
      "s",
      "at"
    ],
    [
      "um",
      "ber"
    ],
    [
      "B",
      "uck"
    ],
    [
      "Buck",
      "ingha"
    ],
    [
      "t",
      "or"
    ],
    [
      "B",
      "ION"
    ],
    [
      "BION",
      "D"
    ],
    [
      "BIOND",
      "ELL"
    ],
    [
      "BIONDELL",
      "O:"
    ],
    [
      "'t",
      ","
    ],
    [
      "at",
      "tend"
    ],
    [
      "a",
      "ct"
    ],
    [
      "there",
      "'s"
    ],
    [
      "pre",
      "t"
    ],
    [
      "be",
      "ll"
    ],
    [
      "say",
      "s"
    ],
    [
      ".",
      "'"
    ],
    [
      "read",
      "y"
    ],
    [
      "H",
      "a"
    ],
    [
      "h",
      "ar"
    ],
    [
      "ou",
      "th"
    ],
    [
      "A",
      "u"
    ],
    [
      "f",
      "id"
    ],
    [
      "Then",
      ","
    ],
    [
      "co",
      "ver"
    ],
    [
      "we",
      "en"
    ],
    [
      "L",
      "ad"
    ],
    [
      "che",
      "s"
    ],
    [
      "hast",
      "e"
    ],
    [
      "gi",
      "ven"
    ],
    [
      "mother",
      ","
    ],
    [
      "s",
      "ign"
    ],
    [
      "one",
      "."
    ],
    [
      "some",
      "thing"
    ],
    [
      "st",
      "o"
    ],
    [
      "vo",
      "ic"
    ],
    [
      "n",
      "ess,"
    ],
    [
      "can",
      "st"
    ],
    [
      "queen",
      ","
    ],
    [
      "Nor",
      "fol"
    ],
    [
      "speak",
      "."
    ],
    [
      "su",
      "ff"
    ],
    [
      "be",
      "come"
    ],
    [
      "love",
      "d"
    ],
    [
      "m",
      "s"
    ],
    [
      "in",
      "deed"
    ],
    [
      "i",
      "ous"
    ],
    [
      "fl",
      "atter"
    ],
    [
      "know",
      ","
    ],
    [
      "!",
      "'"
    ],
    [
      "mis",
      "s"
    ],
    [
      "n",
      "'d"
    ],
    [
      "heaven",
      ","
    ],
    [
      "un",
      "cle"
    ],
    [
      "w",
      "ast"
    ],
    [
      "look",
      "s"
    ],
    [
      "ser",
      "ve"
    ],
    [
      "ed",
      ":"
    ],
    [
      "We",
      "l"
    ],
    [
      "wi",
      "xt"
    ],
    [
      "ce",
      "pt"
    ],
    [
      "p",
      "ie"
    ],
    [
      "live",
      ","
    ],
    [
      "k",
      "n"
    ],
    [
      "k",
      "new"
    ],
    [
      "w",
      "atch"
    ],
    [
      "or",
      ","
    ],
    [
      "night",
      ","
    ],
    [
      "O",
      "P"
    ],
    [
      "c",
      "red"
    ],
    [
      "AU",
      "MER"
    ],
    [
      "AUMER",
      "LE:"
    ],
    [
      "AN",
      "TON"
    ],
    [
      "ANTON",
      "IO:"
    ],
    [
      "reven",
      "ge"
    ],
    [
      "ene",
      "mi"
    ],
    [
      "as",
      "h"
    ],
    [
      "l",
      "ow"
    ],
    [
      "th",
      "ri"
    ],
    [
      "i",
      "de"
    ],
    [
      "p",
      "ow"
    ],
    [
      "st",
      "ir"
    ],
    [
      "man",
      "."
    ],
    [
      "Mad",
      "am,"
    ],
    [
      "Th",
      "us"
    ],
    [
      "bra",
      "ve"
    ],
    [
      "p",
      "ra"
    ],
    [
      "know",
      "s"
    ],
    [
      "there",
      ","
    ],
    [
      "fa",
      "st"
    ],
    [
      "tong",
      "u"
    ],
    [
      "ion",
      "."
    ],
    [
      "conf",
      "ess"
    ],
    [
      "ser",
      "vice"
    ],
    [
      "mor",
      "tal"
    ],
    [
      "again",
      ","
    ],
    [
      "T",
      "ran"
    ],
    [
      "a",
      "w"
    ],
    [
      "h",
      "ood"
    ],
    [
      "all",
      "ow"
    ],
    [
      "L",
      "anca"
    ],
    [
      "king",
      "'s"
    ],
    [
      "did",
      "st"
    ],
    [
      "B",
      "i"
    ],
    [
      "GON",
      "Z"
    ],
    [
      "GONZ",
      "A"
    ],
    [
      "GONZA",
      "LO:"
    ],
    [
      "g",
      "er"
    ],
    [
      "p",
      "ed"
    ],
    [
      "ou",
      "s,"
    ],
    [
      "use",
      "d"
    ],
    [
      "heart",
      ","
    ],
    [
      "Y",
      "e"
    ],
    [
      "ver",
      "s"
    ],
    [
      "just",
      "ice"
    ],
    [
      "b",
      "un"
    ],
    [
      "he",
      "ld"
    ],
    [
      "cer",
      "tain"
    ],
    [
      "e",
      "per"
    ],
    [
      "in",
      "de"
    ],
    [
      "h",
      "ur"
    ],
    [
      "too",
      "k"
    ],
    [
      "ing",
      ":"
    ],
    [
      "ard",
      ","
    ],
    [
      "min",
      "e,"
    ],
    [
      "brother",
      "'s"
    ],
    [
      "to",
      "o,"
    ],
    [
      "po",
      "ss"
    ],
    [
      "ca",
      "st"
    ],
    [
      "M",
      "ost"
    ],
    [
      "honour",
      ","
    ],
    [
      "st",
      "ar"
    ],
    [
      "S",
      "ay"
    ],
    [
      "cl",
      "oud"
    ],
    [
      "b",
      "ook"
    ],
    [
      "na",
      "me,"
    ],
    [
      "a",
      "bo"
    ],
    [
      "pro",
      "p"
    ],
    [
      "bre",
      "athe"
    ],
    [
      "P",
      "om"
    ],
    [
      "H",
      "ER"
    ],
    [
      "K",
      "ate"
    ],
    [
      "Bi",
      "anca"
    ],
    [
      "come",
      "."
    ],
    [
      "do",
      ","
    ],
    [
      "ment",
      "s"
    ],
    [
      "i",
      "ce,"
    ],
    [
      "B",
      "es"
    ],
    [
      "f",
      "our"
    ],
    [
      "sh",
      "ort"
    ],
    [
      "b",
      "row"
    ],
    [
      "bre",
      "ast"
    ],
    [
      "w",
      "he"
    ],
    [
      "spe",
      "ed"
    ],
    [
      "P",
      "l"
    ],
    [
      "i",
      "an"
    ],
    [
      "gri",
      "e"
    ],
    [
      "ment",
      ","
    ],
    [
      "con",
      "sent"
    ],
    [
      "of",
      "ten"
    ],
    [
      "sir",
      "?"
    ],
    [
      "g",
      "ave"
    ],
    [
      "b",
      "on"
    ],
    [
      "spir",
      "it"
    ],
    [
      "comp",
      "an"
    ],
    [
      "tem",
      "pt"
    ],
    [
      "c",
      "ure"
    ],
    [
      "in",
      "e,"
    ],
    [
      "go",
      ","
    ],
    [
      "mar",
      "ry"
    ],
    [
      "Mar",
      "ry,"
    ],
    [
      "Rome",
      "o,"
    ],
    [
      "i",
      "o,"
    ],
    [
      "Pet",
      "ru"
    ],
    [
      "CLIFF",
      "ORD:"
    ],
    [
      "HER",
      "MI"
    ],
    [
      "HERMI",
      "ONE:"
    ],
    [
      "CL",
      "AU"
    ],
    [
      "CLAU",
      "D"
    ],
    [
      "CLAUD",
      "IO:"
    ],
    [
      "fur",
      "ther"
    ],
    [
      "us",
      "ur"
    ],
    [
      "i",
      "ly"
    ],
    [
      "n",
      "er"
    ],
    [
      "c",
      "y"
    ],
    [
      "M",
      "ake"
    ],
    [
      "si",
      "ck"
    ],
    [
      "man",
      "'s"
    ],
    [
      "fa",
      "vour"
    ],
    [
      "ut",
      "e"
    ],
    [
      "th",
      "row"
    ],
    [
      "Au",
      "fid"
    ],
    [
      "Be",
      "ing"
    ],
    [
      "al",
      "ong"
    ],
    [
      "ch",
      "ance"
    ],
    [
      "w",
      "on"
    ],
    [
      "love",
      "."
    ],
    [
      "s",
      "pr"
    ],
    [
      "look",
      "'d"
    ],
    [
      "f",
      "ly"
    ],
    [
      "'t",
      "was"
    ],
    [
      "night",
      "."
    ],
    [
      "e",
      "w"
    ],
    [
      "y",
      "ond"
    ],
    [
      "he",
      "ll"
    ],
    [
      "d",
      "den"
    ],
    [
      "Pr",
      "ay"
    ],
    [
      "'t",
      "were"
    ],
    [
      "We",
      "ll"
    ],
    [
      "a",
      "de"
    ],
    [
      "world",
      ","
    ],
    [
      "beg",
      "in"
    ],
    [
      "te",
      "st"
    ],
    [
      "st",
      "u"
    ],
    [
      "ci",
      "ent"
    ],
    [
      "for",
      "get"
    ],
    [
      "t",
      "in"
    ],
    [
      "b",
      "lack"
    ],
    [
      "di",
      "v"
    ],
    [
      "d",
      "d"
    ],
    [
      "s",
      "es"
    ],
    [
      "A",
      "way"
    ],
    [
      "k",
      "no"
    ],
    [
      "P",
      "er"
    ],
    [
      "we",
      "ak"
    ],
    [
      "beaut",
      "y"
    ],
    [
      "land",
      ","
    ],
    [
      "L",
      "OR"
    ],
    [
      "LOR",
      "D"
    ],
    [
      "marri",
      "ed"
    ],
    [
      "J",
      "O"
    ],
    [
      "Claudi",
      "o"
    ],
    [
      "Petru",
      "chi"
    ],
    [
      "MI",
      "RAN"
    ],
    [
      "MIRAN",
      "D"
    ],
    [
      "MIRAND",
      "A:"
    ],
    [
      "S",
      "pe"
    ],
    [
      "here",
      "?"
    ],
    [
      "speak",
      ","
    ],
    [
      "more",
      "."
    ],
    [
      "ap",
      "p"
    ],
    [
      "bat",
      "tle"
    ],
    [
      "al",
      "."
    ],
    [
      "li",
      "ant"
    ],
    [
      "appe",
      "ar"
    ],
    [
      "you",
      "th"
    ],
    [
      "g",
      "one,"
    ],
    [
      "f",
      "ir"
    ],
    [
      "C",
      "all"
    ],
    [
      "in",
      "ter"
    ],
    [
      "b",
      "ad"
    ],
    [
      "re",
      "quest"
    ],
    [
      "lo",
      "ves"
    ],
    [
      "me",
      "!"
    ],
    [
      "al",
      "th"
    ],
    [
      "po",
      "st"
    ],
    [
      "sc",
      "ar"
    ],
    [
      "b",
      "y,"
    ],
    [
      "s",
      "k"
    ],
    [
      "li",
      "ber"
    ],
    [
      "There",
      "fore"
    ],
    [
      "H",
      "ar"
    ],
    [
      "house",
      ","
    ],
    [
      "l",
      "an"
    ],
    [
      "c",
      "reat"
    ],
    [
      "se",
      "e,"
    ],
    [
      "ing",
      "s,"
    ],
    [
      "PRINC",
      "E"
    ],
    [
      "F",
      "rance"
    ],
    [
      "sat",
      "is"
    ],
    [
      "JO",
      "H"
    ],
    [
      "JOH",
      "N"
    ],
    [
      "S",
      "ON"
    ],
    [
      "SON",
      ":"
    ],
    [
      "u",
      "a"
    ],
    [
      "Tybal",
      "t"
    ],
    [
      "Be",
      "fore"
    ],
    [
      "p",
      "ay"
    ],
    [
      "si",
      "de"
    ],
    [
      "er",
      "ing"
    ],
    [
      "but",
      ","
    ],
    [
      "head",
      ","
    ],
    [
      "ge",
      "."
    ],
    [
      "end",
      "s"
    ],
    [
      "pa",
      "le"
    ],
    [
      "h",
      "ind"
    ],
    [
      "S",
      "ince"
    ],
    [
      "bet",
      "ween"
    ],
    [
      "sa",
      "fe"
    ],
    [
      "mad",
      "am"
    ],
    [
      "bl",
      "ess"
    ],
    [
      "That",
      "'s"
    ],
    [
      "ne",
      "ither"
    ],
    [
      "so",
      "?"
    ],
    [
      "di",
      "re"
    ],
    [
      "'d",
      ";"
    ],
    [
      "st",
      "."
    ],
    [
      "fe",
      "ast"
    ],
    [
      "C",
      "ori"
    ],
    [
      "Cori",
      "ol"
    ],
    [
      "Coriol",
      "an"
    ],
    [
      "wor",
      "ship"
    ],
    [
      "w",
      "ed"
    ],
    [
      "tr",
      "ou"
    ],
    [
      "p",
      "lo"
    ],
    [
      "f",
      "rown"
    ],
    [
      "p",
      "it"
    ],
    [
      "ri",
      "ed"
    ],
    [
      "she",
      "'s"
    ],
    [
      "ve",
      "l"
    ],
    [
      "high",
      "ness"
    ],
    [
      "B",
      "U"
    ],
    [
      "day",
      "."
    ],
    [
      "ba",
      "w"
    ],
    [
      "Juli",
      "et"
    ],
    [
      "mi",
      "o"
    ],
    [
      "Spe",
      "ak"
    ],
    [
      "cour",
      "se"
    ],
    [
      "re",
      "ceive"
    ],
    [
      "Be",
      "cause"
    ],
    [
      "li",
      "c"
    ],
    [
      "si",
      "gh"
    ],
    [
      "f",
      "ra"
    ],
    [
      "Su",
      "ch"
    ],
    [
      "Let",
      "'s"
    ],
    [
      "day",
      "s"
    ],
    [
      "to",
      "wn"
    ],
    [
      "pati",
      "ence"
    ],
    [
      "si",
      "ble"
    ],
    [
      "bri",
      "ef"
    ],
    [
      "spo",
      "ke"
    ],
    [
      "d",
      "ar"
    ],
    [
      "stand",
      "s"
    ],
    [
      "tre",
      "m"
    ],
    [
      "l",
      "st"
    ],
    [
      "danger",
      "ous"
    ],
    [
      "away",
      "."
    ],
    [
      "Rome",
      ","
    ],
    [
      "'",
      "en"
    ],
    [
      "there",
      "fore,"
    ],
    [
      "c",
      "c"
    ],
    [
      "b",
      "la"
    ],
    [
      "ma",
      "g"
    ],
    [
      "p",
      "al"
    ],
    [
      "ser",
      "vant"
    ],
    [
      "ha",
      "ving"
    ],
    [
      "ey",
      "es,"
    ],
    [
      "ent",
      "."
    ],
    [
      "su",
      "m"
    ],
    [
      "spe",
      "ech"
    ],
    [
      "ch",
      ","
    ],
    [
      "pose",
      "d"
    ],
    [
      "r",
      "ough"
    ],
    [
      "boso",
      "m"
    ],
    [
      "poss",
      "ess"
    ],
    [
      "streng",
      "th"
    ],
    [
      "d",
      "read"
    ],
    [
      "f",
      "res"
    ],
    [
      "ch",
      "ang"
    ],
    [
      "lord",
      "?"
    ],
    [
      "Edward",
      ","
    ],
    [
      "dead",
      ","
    ],
    [
      "Mar",
      "gar"
    ],
    [
      "C",
      "h"
    ],
    [
      "CA",
      "T"
    ],
    [
      "CAT",
      "ES"
    ],
    [
      "CATES",
      "BY:"
    ],
    [
      "ne",
      "xt"
    ],
    [
      "lie",
      "ge,"
    ],
    [
      "crown",
      ","
    ],
    [
      "marri",
      "age"
    ],
    [
      "N",
      "T:"
    ],
    [
      "I",
      "T"
    ],
    [
      "A",
      "G"
    ],
    [
      "C",
      "A:"
    ],
    [
      "Lu",
      "centio"
    ],
    [
      "do",
      "g"
    ],
    [
      "wor",
      "k"
    ],
    [
      "you",
      "'ll"
    ],
    [
      "nat",
      "ur"
    ],
    [
      "The",
      "ir"
    ],
    [
      "ba",
      "se"
    ],
    [
      "i",
      "us,"
    ],
    [
      "ck",
      "s"
    ],
    [
      "hen",
      "ce,"
    ],
    [
      "ac",
      "tion"
    ],
    [
      "is",
      "."
    ],
    [
      "is",
      "sue"
    ],
    [
      "f",
      "ill"
    ],
    [
      "l",
      "ar"
    ],
    [
      "hour",
      "s"
    ],
    [
      "g",
      "es"
    ],
    [
      "M",
      "ust"
    ],
    [
      "ho",
      "t"
    ],
    [
      "bo",
      "y"
    ],
    [
      "vi",
      "ctor"
    ],
    [
      "al",
      "k"
    ],
    [
      "m",
      "it"
    ],
    [
      "che",
      "ek"
    ],
    [
      "Who",
      "m"
    ],
    [
      "fl",
      "es"
    ],
    [
      "c",
      "ol"
    ],
    [
      "P",
      "e"
    ],
    [
      "K",
      "e"
    ],
    [
      "for",
      "ward"
    ],
    [
      "tit",
      "le"
    ],
    [
      "S",
      "aint"
    ],
    [
      "ear",
      "th,"
    ],
    [
      "GRE",
      "Y:"
    ],
    [
      "L",
      "ond"
    ],
    [
      "or",
      ":"
    ],
    [
      "is",
      "ta"
    ],
    [
      "B",
      "apt"
    ],
    [
      "m",
      "pet"
    ],
    [
      "s",
      "wi"
    ],
    [
      "vi",
      "le"
    ],
    [
      "E",
      "re"
    ],
    [
      "r",
      "ing"
    ],
    [
      "bra",
      "ce"
    ],
    [
      "LI",
      "A:"
    ],
    [
      "mad",
      "am,"
    ],
    [
      "su",
      "dden"
    ],
    [
      "vi",
      "ol"
    ],
    [
      "ant",
      ":"
    ],
    [
      "ta",
      "'en"
    ],
    [
      "prince",
      "ly"
    ],
    [
      "po",
      "ison"
    ],
    [
      "st",
      "ain"
    ],
    [
      "Bo",
      "th"
    ],
    [
      "ar",
      "y"
    ],
    [
      "go",
      "."
    ],
    [
      "die",
      "."
    ],
    [
      "S",
      "i"
    ],
    [
      "p",
      "ite"
    ],
    [
      "res",
      "pect"
    ],
    [
      "friend",
      ","
    ],
    [
      "L",
      "est"
    ],
    [
      "s",
      "al"
    ],
    [
      "r",
      "t"
    ],
    [
      "fa",
      "ce,"
    ],
    [
      "Un",
      "less"
    ],
    [
      "fl",
      "ow"
    ],
    [
      "d",
      "run"
    ],
    [
      "G",
      "e"
    ],
    [
      "Ge",
      "or"
    ],
    [
      "BR",
      "A"
    ],
    [
      "Lanca",
      "ster"
    ],
    [
      "go",
      "ver"
    ],
    [
      "Clif",
      "ford"
    ],
    [
      "prin",
      "ce,"
    ],
    [
      "R",
      "IV"
    ],
    [
      "RIV",
      "ER"
    ],
    [
      "RIVER",
      "S:"
    ],
    [
      "che",
      "er"
    ],
    [
      "bit",
      "ter"
    ],
    [
      "good",
      ","
    ],
    [
      "M",
      "er"
    ],
    [
      "P",
      "ar"
    ],
    [
      "G",
      "a"
    ],
    [
      "Mast",
      "er"
    ],
    [
      "BA",
      "L"
    ],
    [
      "I",
      "sa"
    ],
    [
      "B",
      "IAN"
    ],
    [
      "BIAN",
      "CA:"
    ],
    [
      "Bapt",
      "ista"
    ],
    [
      "all",
      "y"
    ],
    [
      "T",
      "ru"
    ],
    [
      "Se",
      "e"
    ],
    [
      "think",
      ","
    ],
    [
      "il",
      ","
    ],
    [
      "c",
      "ow"
    ],
    [
      "so",
      "l"
    ],
    [
      "ear",
      "s"
    ],
    [
      "va",
      "liant"
    ],
    [
      "wor",
      "se"
    ],
    [
      "them",
      "selves"
    ],
    [
      "b",
      "ly"
    ],
    [
      "vis",
      "it"
    ],
    [
      "d",
      "ru"
    ],
    [
      "A",
      "L"
    ],
    [
      "il",
      "s"
    ],
    [
      "fet",
      "ch"
    ],
    [
      "i",
      "ed"
    ],
    [
      "T",
      "ho"
    ],
    [
      "er",
      "t"
    ],
    [
      "here",
      "'s"
    ],
    [
      "ple",
      "as"
    ],
    [
      "re",
      "ver"
    ],
    [
      "er",
      "'s"
    ],
    [
      "Y",
      "es,"
    ],
    [
      "tri",
      "um"
    ],
    [
      "e",
      "as"
    ],
    [
      "call",
      "'d"
    ],
    [
      "sc",
      "orn"
    ],
    [
      "said",
      ","
    ],
    [
      "beg",
      "gar"
    ],
    [
      "lo",
      "ss"
    ],
    [
      "law",
      "ful"
    ],
    [
      "pres",
      "ence"
    ],
    [
      "ant",
      ","
    ],
    [
      "myself",
      ","
    ],
    [
      "mus",
      "ic"
    ],
    [
      "quar",
      "rel"
    ],
    [
      "p",
      "as"
    ],
    [
      "him",
      "?"
    ],
    [
      "Clar",
      "ence,"
    ],
    [
      "might",
      "y"
    ],
    [
      "P",
      "a"
    ],
    [
      "pro",
      "vo"
    ],
    [
      "Nor",
      "th"
    ],
    [
      "soul",
      ","
    ],
    [
      "cous",
      "in,"
    ],
    [
      "c",
      "le,"
    ],
    [
      "ar",
      "l"
    ],
    [
      "G",
      "AU"
    ],
    [
      "GAU",
      "NT:"
    ],
    [
      "ort",
      "en"
    ],
    [
      "fri",
      "ar"
    ],
    [
      "EL",
      "B"
    ],
    [
      "ELB",
      "OW"
    ],
    [
      "ELBOW",
      ":"
    ],
    [
      "s",
      "oft"
    ],
    [
      "virt",
      "ue"
    ],
    [
      "He",
      "'s"
    ],
    [
      "arm",
      "s"
    ],
    [
      "ers",
      ";"
    ],
    [
      "ta",
      "le"
    ],
    [
      "sir",
      ":"
    ],
    [
      "rest",
      ","
    ],
    [
      "un",
      "g"
    ],
    [
      "have",
      ","
    ],
    [
      "al",
      "most"
    ],
    [
      "w",
      "all"
    ],
    [
      "m",
      "outh"
    ],
    [
      "tri",
      "bun"
    ],
    [
      "def",
      "end"
    ],
    [
      "home",
      ","
    ],
    [
      "prom",
      "ise"
    ],
    [
      "pr",
      "ay,"
    ],
    [
      "p",
      "atch"
    ],
    [
      "a",
      "ven"
    ],
    [
      "e",
      "ase"
    ],
    [
      "me",
      "t"
    ],
    [
      "mine",
      "."
    ],
    [
      "pp",
      "'d"
    ],
    [
      "ck",
      "'d"
    ],
    [
      "him",
      "!"
    ],
    [
      "not",
      ";"
    ],
    [
      "s",
      "per"
    ],
    [
      "new",
      "s?"
    ],
    [
      "mer",
      "ry"
    ],
    [
      "H",
      "old"
    ],
    [
      "a",
      "id"
    ],
    [
      "here",
      "."
    ],
    [
      "in",
      "ed"
    ],
    [
      "was",
      "h"
    ],
    [
      "heart",
      "."
    ],
    [
      "o",
      "cc"
    ],
    [
      "le",
      "ast"
    ],
    [
      "ap",
      "pro"
    ],
    [
      "com",
      "ing"
    ],
    [
      "an",
      "cient"
    ],
    [
      "gone",
      "."
    ],
    [
      "col",
      "our"
    ],
    [
      "life",
      "."
    ],
    [
      "d",
      ";"
    ],
    [
      "lam",
      "ent"
    ],
    [
      "jo",
      "in"
    ],
    [
      "ra",
      "h,"
    ],
    [
      "ti",
      "l"
    ],
    [
      "ca",
      "se"
    ],
    [
      "majest",
      "y"
    ],
    [
      "be",
      "l"
    ],
    [
      "clo",
      "se"
    ],
    [
      "sla",
      "ught"
    ],
    [
      "Ch",
      "ris"
    ],
    [
      "O",
      "x"
    ],
    [
      "m",
      "as"
    ],
    [
      "k",
      "ins"
    ],
    [
      "b",
      "oo"
    ],
    [
      "T",
      "Y"
    ],
    [
      "A",
      "S"
    ],
    [
      "A",
      "M"
    ],
    [
      "M",
      "ONT"
    ],
    [
      "MONT",
      "AG"
    ],
    [
      "MONTAG",
      "U"
    ],
    [
      "MONTAGU",
      "E:"
    ],
    [
      "bri",
      "de"
    ],
    [
      "in",
      "a"
    ],
    [
      "H",
      "orten"
    ],
    [
      "Horten",
      "si"
    ],
    [
      "ti",
      "c"
    ],
    [
      "ma",
      "li"
    ],
    [
      "u",
      "b"
    ],
    [
      "'",
      "em"
    ],
    [
      "e",
      "at"
    ],
    [
      "re",
      "main"
    ],
    [
      "m",
      "id"
    ],
    [
      "ge",
      "st"
    ],
    [
      "th",
      "ither"
    ],
    [
      "b",
      "or"
    ],
    [
      "go",
      "es"
    ],
    [
      "ce",
      "ll"
    ],
    [
      "bu",
      "y"
    ],
    [
      "fo",
      "e"
    ],
    [
      "suc",
      "cess"
    ],
    [
      "she",
      "pher"
    ],
    [
      "hi",
      "de"
    ],
    [
      "be",
      "ast"
    ],
    [
      "k",
      "ed"
    ],
    [
      "wr",
      "it"
    ],
    [
      "d",
      "ark"
    ],
    [
      "trium",
      "ph"
    ],
    [
      "m",
      "atch"
    ],
    [
      "di",
      "e,"
    ],
    [
      "St",
      "and"
    ],
    [
      "fort",
      "un"
    ],
    [
      "id",
      "es"
    ],
    [
      "so",
      ";"
    ],
    [
      "ha",
      "p"
    ],
    [
      "ch",
      "ur"
    ],
    [
      "ban",
      "ish'd"
    ],
    [
      "Farewell",
      ","
    ],
    [
      "sir",
      "!"
    ],
    [
      "wit",
      "ness"
    ],
    [
      "Al",
      "as,"
    ],
    [
      "Richard",
      ","
    ],
    [
      "se",
      "c"
    ],
    [
      "Glouce",
      "ster"
    ],
    [
      "North",
      "umber"
    ],
    [
      "de",
      "part"
    ],
    [
      "gu",
      "il"
    ],
    [
      "Do",
      "th"
    ],
    [
      "i",
      "cian"
    ],
    [
      "Bo",
      "he"
    ],
    [
      "Bohe",
      "mi"
    ],
    [
      "Pom",
      "pe"
    ],
    [
      "K",
      "ath"
    ],
    [
      "Kath",
      "ar"
    ],
    [
      "K",
      "ate,"
    ],
    [
      "ment",
      "."
    ],
    [
      "s",
      "land"
    ],
    [
      "pret",
      "ty"
    ],
    [
      "bo",
      "d"
    ],
    [
      "tru",
      "mpet"
    ],
    [
      "sm",
      "all"
    ],
    [
      "se",
      "at"
    ],
    [
      "of",
      ","
    ],
    [
      "ation",
      "."
    ],
    [
      "g",
      "lad"
    ],
    [
      "v",
      "ol"
    ],
    [
      "wond",
      "er"
    ],
    [
      "c",
      "en"
    ],
    [
      "then",
      "ce"
    ],
    [
      "m",
      "our"
    ],
    [
      "VI",
      "R"
    ],
    [
      "VIR",
      "G"
    ],
    [
      "VIRG",
      "I"
    ],
    [
      "VIRGI",
      "LIA:"
    ],
    [
      "fe",
      "it"
    ],
    [
      "S",
      "we"
    ],
    [
      "e",
      "th"
    ],
    [
      "inde",
      "ed,"
    ],
    [
      "We",
      "'ll"
    ],
    [
      "heart",
      "s"
    ],
    [
      "thee",
      ";"
    ],
    [
      "i",
      "le"
    ],
    [
      "le",
      "ct"
    ],
    [
      "p",
      "ort"
    ],
    [
      "g",
      "g"
    ],
    [
      "ce",
      "d"
    ],
    [
      "ad",
      "d"
    ],
    [
      "thee",
      ":"
    ],
    [
      "mor",
      "ning"
    ],
    [
      "dr",
      "ink"
    ],
    [
      "ca",
      "p"
    ],
    [
      "consu",
      "l"
    ],
    [
      "offi",
      "ce"
    ],
    [
      "g",
      "ent"
    ],
    [
      "that",
      "?"
    ],
    [
      "g",
      "all"
    ],
    [
      "id",
      "ed"
    ],
    [
      "m",
      "."
    ],
    [
      "dish",
      "onour"
    ],
    [
      "now",
      "."
    ],
    [
      "obe",
      "di"
    ],
    [
      "in",
      "no"
    ],
    [
      "wi",
      "ld"
    ],
    [
      "mi",
      "ld"
    ],
    [
      "cro",
      "ss"
    ],
    [
      "r",
      "ay"
    ],
    [
      "an",
      ","
    ],
    [
      "not",
      "?"
    ],
    [
      "kno",
      "ck"
    ],
    [
      "c",
      "ord"
    ],
    [
      "down",
      ","
    ],
    [
      "fres",
      "h"
    ],
    [
      "dut",
      "y"
    ],
    [
      "li",
      "ving"
    ],
    [
      "now",
      "!"
    ],
    [
      "sec",
      "ret"
    ],
    [
      "Pa",
      "ul"
    ],
    [
      "ing",
      "-"
    ],
    [
      "king",
      "dom"
    ],
    [
      "lo",
      "s"
    ],
    [
      "E",
      "x"
    ],
    [
      "ord",
      "er"
    ],
    [
      "Yor",
      "k,"
    ],
    [
      "A",
      "T"
    ],
    [
      "Rich",
      "m"
    ],
    [
      "Richm",
      "ond"
    ],
    [
      "father",
      "."
    ],
    [
      "QUEEN",
      ":"
    ],
    [
      "PER",
      "D"
    ],
    [
      "PERD",
      "IT"
    ],
    [
      "PERDIT",
      "A:"
    ],
    [
      "ER",
      "D"
    ],
    [
      "c",
      "orn"
    ],
    [
      "word",
      ","
    ],
    [
      "st",
      "ate,"
    ],
    [
      "af",
      "fection"
    ],
    [
      "mi",
      "le"
    ],
    [
      "then",
      "?"
    ],
    [
      "That",
      ","
    ],
    [
      "st",
      "ant"
    ],
    [
      "g",
      "ir"
    ],
    [
      "per",
      "form"
    ],
    [
      "daught",
      "er,"
    ],
    [
      "wom",
      "b"
    ],
    [
      "ch",
      "er"
    ],
    [
      "m",
      "ir"
    ],
    [
      "M",
      "is"
    ],
    [
      "d",
      "ge"
    ],
    [
      "po",
      "sit"
    ],
    [
      "ation",
      ","
    ],
    [
      "Which",
      ","
    ],
    [
      "man",
      ";"
    ],
    [
      "ust",
      "om"
    ],
    [
      "people",
      ","
    ],
    [
      "st",
      "ood"
    ],
    [
      "There",
      "'s"
    ],
    [
      "su",
      "it"
    ],
    [
      "deser",
      "ved"
    ],
    [
      "qu",
      "it"
    ],
    [
      "will",
      "ing"
    ],
    [
      "not",
      ":"
    ],
    [
      "fles",
      "h"
    ],
    [
      "me",
      "asure"
    ],
    [
      "den",
      "y"
    ],
    [
      "t",
      "y,"
    ],
    [
      "trou",
      "ble"
    ],
    [
      "for",
      ","
    ],
    [
      "con",
      "tin"
    ],
    [
      "Here",
      "'s"
    ],
    [
      "good",
      "ly"
    ],
    [
      "oo",
      "p"
    ],
    [
      "say",
      "."
    ],
    [
      "merc",
      "y"
    ],
    [
      "be",
      "d,"
    ],
    [
      "qui",
      "et"
    ],
    [
      "pos",
      "sible"
    ],
    [
      "kne",
      "el"
    ],
    [
      "L",
      "o"
    ],
    [
      "'st",
      ","
    ],
    [
      "gre",
      "et"
    ],
    [
      "gl",
      "or"
    ],
    [
      "win",
      "ter"
    ],
    [
      "Ye",
      "a,"
    ],
    [
      "Henry",
      "'s"
    ],
    [
      "le",
      "is"
    ],
    [
      "leis",
      "ure"
    ],
    [
      "s",
      "us"
    ],
    [
      "England",
[...]
